const unsigned char model[] = {
  0x20, 0x00, 0x00, 0x00, 0x54, 0x46, 0x4c, 0x33, 0x00, 0x00, 0x00, 0x00,
  0x00, 0x00, 0x12, 0x00, 0x1c, 0x00, 0x04, 0x00, 0x08, 0x00, 0x0c, 0x00,
  0x10, 0x00, 0x14, 0x00, 0x00, 0x00, 0x18, 0x00, 0x12, 0x00, 0x00, 0x00,
  0x03, 0x00, 0x00, 0x00, 0x84, 0x24, 0x00, 0x00, 0x90, 0x1c, 0x00, 0x00,
  0x78, 0x1c, 0x00, 0x00, 0x3c, 0x00, 0x00, 0x00, 0x04, 0x00, 0x00, 0x00,
  0x01, 0x00, 0x00, 0x00, 0x0c, 0x00, 0x00, 0x00, 0x08, 0x00, 0x0c, 0x00,
  0x04, 0x00, 0x08, 0x00, 0x08, 0x00, 0x00, 0x00, 0x08, 0x00, 0x00, 0x00,
  0x0c, 0x00, 0x00, 0x00, 0x13, 0x00, 0x00, 0x00, 0x6d, 0x69, 0x6e, 0x5f,
  0x72, 0x75, 0x6e, 0x74, 0x69, 0x6d, 0x65, 0x5f, 0x76, 0x65, 0x72, 0x73,
  0x69, 0x6f, 0x6e, 0x00, 0x0d, 0x00, 0x00, 0x00, 0x30, 0x1c, 0x00, 0x00,
  0x18, 0x1c, 0x00, 0x00, 0xe8, 0x1b, 0x00, 0x00, 0x9c, 0x1b, 0x00, 0x00,
  0xc4, 0x1a, 0x00, 0x00, 0xbc, 0x1a, 0x00, 0x00, 0xbc, 0x17, 0x00, 0x00,
  0xb4, 0x17, 0x00, 0x00, 0xac, 0x17, 0x00, 0x00, 0x2c, 0x00, 0x00, 0x00,
  0x24, 0x00, 0x00, 0x00, 0x1c, 0x00, 0x00, 0x00, 0x04, 0x00, 0x00, 0x00,
  0x6a, 0xe3, 0xff, 0xff, 0x04, 0x00, 0x00, 0x00, 0x05, 0x00, 0x00, 0x00,
  0x31, 0x2e, 0x35, 0x2e, 0x30, 0x00, 0x00, 0x00, 0x4c, 0xe3, 0xff, 0xff,
  0x50, 0xe3, 0xff, 0xff, 0x86, 0xe3, 0xff, 0xff, 0x04, 0x00, 0x00, 0x00,
  0x70, 0x17, 0x00, 0x00, 0x43, 0x61, 0xdb, 0xeb, 0x08, 0x41, 0xd6, 0x06,
  0xf8, 0x11, 0xfb, 0xc2, 0xe8, 0x2d, 0x27, 0xf3, 0xe9, 0xd6, 0x02, 0x02,
  0x02, 0x16, 0x30, 0x0a, 0xd4, 0x26, 0xe1, 0x14, 0xe1, 0xf7, 0xd2, 0x19,
  0x4d, 0x00, 0x00, 0x0f, 0x26, 0xff, 0xfb, 0x06, 0x0e, 0x01, 0x39, 0x01,
  0x31, 0xe4, 0x0b, 0x0b, 0xdb, 0xc0, 0x12, 0xbc, 0xed, 0xd1, 0xb0, 0x58,
  0xcc, 0xf4, 0x37, 0x0b, 0x02, 0x07, 0x0f, 0x07, 0xc3, 0xf7, 0x06, 0x13,
  0xe9, 0xe1, 0x52, 0x9e, 0xe3, 0xf4, 0xfc, 0xa6, 0x42, 0xda, 0x03, 0xde,
  0xe3, 0xec, 0x09, 0xc6, 0xa8, 0xc4, 0x3f, 0xc2, 0x05, 0xca, 0x17, 0xde,
  0x45, 0xa0, 0xff, 0xf7, 0x21, 0xcd, 0x0a, 0x48, 0xf8, 0xf7, 0x5a, 0x1a,
  0x1c, 0xc6, 0xe3, 0xfb, 0x4c, 0xda, 0x22, 0xbb, 0xde, 0xec, 0x4f, 0xff,
  0xed, 0xb6, 0xcf, 0x02, 0xc3, 0xf3, 0x25, 0xce, 0xf4, 0xc1, 0xee, 0x07,
  0xfd, 0x0b, 0x18, 0xcf, 0x07, 0x01, 0x1c, 0xce, 0xce, 0xf4, 0xd4, 0x4a,
  0x45, 0xfb, 0x16, 0x5f, 0x21, 0x4b, 0x04, 0xe3, 0x4a, 0x07, 0x1b, 0x0f,
  0x04, 0x0f, 0xdc, 0x15, 0x10, 0x20, 0xf6, 0xae, 0xf2, 0xdc, 0xd9, 0x37,
  0x2f, 0xd5, 0xd9, 0xe1, 0xb1, 0x2c, 0x1f, 0x00, 0xcb, 0xc7, 0x0b, 0x4d,
  0x12, 0xe7, 0xe8, 0x46, 0xce, 0x17, 0xd6, 0xc1, 0xcf, 0xd1, 0x02, 0x3b,
  0x1b, 0x17, 0x35, 0xe3, 0x4a, 0xc6, 0x55, 0x0a, 0x21, 0x14, 0x3d, 0xf7,
  0x18, 0x3d, 0x2a, 0xd0, 0x49, 0xe7, 0xf5, 0x09, 0x2a, 0x55, 0xfc, 0xdb,
  0x08, 0xc7, 0x24, 0x0e, 0x0f, 0xec, 0x04, 0x2d, 0xa9, 0x3a, 0xc8, 0xa9,
  0x38, 0x18, 0x32, 0x05, 0x2a, 0xaf, 0xf0, 0xe8, 0x1a, 0x1a, 0xc7, 0xe2,
  0x6a, 0x18, 0x46, 0xac, 0x1e, 0x50, 0xd1, 0xfd, 0xd4, 0x62, 0x15, 0x61,
  0x4b, 0x3f, 0xf0, 0xcc, 0x05, 0x34, 0x1a, 0x1f, 0x4e, 0x3e, 0xe5, 0x08,
  0xe2, 0x04, 0x29, 0x16, 0xed, 0x4e, 0xe7, 0x3b, 0x12, 0xf5, 0x28, 0x43,
  0xfb, 0xe0, 0x3f, 0xdd, 0x28, 0xfa, 0x51, 0x34, 0x3a, 0xfb, 0xc5, 0xf0,
  0x1f, 0xe8, 0x07, 0xda, 0xf7, 0xc8, 0x13, 0xea, 0xf5, 0xed, 0x2e, 0x1b,
  0x62, 0x02, 0x36, 0xe8, 0x2d, 0x46, 0xfd, 0xef, 0x3a, 0xa0, 0x2a, 0x09,
  0x2f, 0xf8, 0xdf, 0xd0, 0xed, 0x4d, 0x28, 0x11, 0xfe, 0xe4, 0xd5, 0xcd,
  0x57, 0x01, 0x4c, 0xe9, 0xf6, 0x05, 0xca, 0xe9, 0xfb, 0xad, 0x52, 0xd3,
  0xb5, 0xdc, 0xb3, 0xf3, 0x39, 0xe1, 0xdd, 0xec, 0xdd, 0xf9, 0x06, 0xd1,
  0x46, 0x1b, 0xe0, 0xe6, 0xc9, 0xd3, 0x46, 0xd3, 0xf5, 0xe9, 0x46, 0xb6,
  0xf6, 0xf3, 0x08, 0x16, 0x36, 0xfa, 0xc8, 0xd8, 0x21, 0xdc, 0xee, 0x37,
  0x36, 0x0c, 0xaa, 0x0e, 0xe9, 0x5b, 0x16, 0xf9, 0xed, 0xe2, 0x29, 0xdc,
  0x15, 0xde, 0x0e, 0xfb, 0x2a, 0xd6, 0xe2, 0xd2, 0xbc, 0xf5, 0x53, 0xce,
  0xe3, 0x2c, 0xf6, 0x2d, 0x4e, 0x2a, 0x02, 0xb2, 0xd3, 0x09, 0x56, 0x24,
  0xfd, 0xce, 0x0f, 0x04, 0x16, 0x57, 0x33, 0xb8, 0x10, 0x02, 0xbb, 0xa7,
  0xfa, 0x47, 0xff, 0x1a, 0xf0, 0xec, 0x0a, 0x0d, 0x20, 0x51, 0xc5, 0xd5,
  0x12, 0xdb, 0x4d, 0x3d, 0x4e, 0x41, 0x14, 0xed, 0x2e, 0x2a, 0xe7, 0xfc,
  0x9a, 0x4a, 0xe8, 0x0d, 0x0e, 0x4a, 0xa9, 0x0d, 0xd9, 0x27, 0x33, 0x39,
  0x03, 0xdf, 0x14, 0xad, 0x4e, 0x11, 0xf5, 0xf0, 0x03, 0xe0, 0xe0, 0xd3,
  0xce, 0x0e, 0x2a, 0x2a, 0xc1, 0x4f, 0x2c, 0x3b, 0x0a, 0x17, 0x11, 0x24,
  0x1b, 0x31, 0xe5, 0x36, 0xd6, 0x4e, 0x24, 0x06, 0xe5, 0xd5, 0xfa, 0xda,
  0x4a, 0x02, 0xf5, 0x34, 0xd2, 0x08, 0x0e, 0x43, 0xb4, 0x46, 0x34, 0xd2,
  0xcb, 0x31, 0x28, 0x00, 0x30, 0xe8, 0x31, 0xe1, 0xd0, 0xd0, 0xad, 0x0e,
  0xef, 0xe5, 0x06, 0xeb, 0x1a, 0xdc, 0x0c, 0xf7, 0xdc, 0x50, 0x3c, 0xce,
  0x1e, 0xde, 0x3c, 0x10, 0x15, 0xc2, 0x02, 0x07, 0xf6, 0x13, 0x1b, 0x10,
  0xfa, 0x23, 0x35, 0x07, 0xdb, 0x59, 0x42, 0xf8, 0xc9, 0x29, 0xf4, 0x22,
  0x0b, 0x33, 0x46, 0x22, 0x1e, 0xcf, 0x23, 0x35, 0xea, 0xfb, 0x0f, 0xdc,
  0x00, 0x42, 0x14, 0xf6, 0xb9, 0x49, 0x10, 0xe8, 0xa9, 0xf7, 0x11, 0x2b,
  0x4b, 0xd3, 0xbf, 0x00, 0xee, 0xff, 0x05, 0x1d, 0xfa, 0xe2, 0x27, 0x2f,
  0x32, 0xd9, 0x37, 0xee, 0x0a, 0x2c, 0xdc, 0xb5, 0x20, 0xde, 0x17, 0x0b,
  0x06, 0xb4, 0xe4, 0xf0, 0xe2, 0x0d, 0xa6, 0x31, 0xf5, 0x3b, 0xef, 0xc7,
  0xbd, 0x14, 0xec, 0x10, 0xf7, 0x20, 0x1f, 0xe5, 0xdf, 0x3d, 0xe9, 0x23,
  0xfa, 0xde, 0xd7, 0x2c, 0xee, 0xe4, 0x04, 0x04, 0xf8, 0x44, 0xd5, 0x03,
  0xc2, 0xc0, 0x3a, 0x1f, 0xb3, 0xcd, 0x52, 0x00, 0x06, 0xf2, 0xca, 0xfb,
  0x31, 0xff, 0x48, 0xdf, 0xae, 0xe1, 0xe2, 0xe6, 0x43, 0xa4, 0x28, 0xe0,
  0xf8, 0xc0, 0x00, 0x05, 0xeb, 0xf2, 0x54, 0x3c, 0x1d, 0xb2, 0x0d, 0x40,
  0xf5, 0xe4, 0xfc, 0xe5, 0xe6, 0x4d, 0xe2, 0xbc, 0xda, 0xbe, 0xfc, 0xa2,
  0x0b, 0x4e, 0xc5, 0x17, 0xef, 0xbd, 0xb6, 0xfa, 0x24, 0xf4, 0xf1, 0x31,
  0xc9, 0x10, 0x15, 0x29, 0x29, 0xe9, 0xce, 0xbf, 0x01, 0x36, 0xcf, 0xc1,
  0xae, 0x1e, 0xd8, 0xdc, 0x0d, 0x33, 0x0b, 0xd4, 0xdb, 0xdb, 0xd2, 0x3a,
  0xdd, 0xe5, 0x44, 0x30, 0x06, 0x01, 0x24, 0x0b, 0xfd, 0x1b, 0xdd, 0x1c,
  0xd0, 0x3a, 0x23, 0xd1, 0x2e, 0xce, 0x29, 0xf1, 0xca, 0xdc, 0x35, 0xfc,
  0x12, 0xe5, 0xe3, 0xef, 0xec, 0x40, 0xb3, 0x49, 0xd0, 0x4c, 0x43, 0x05,
  0x1a, 0x38, 0xc3, 0xde, 0x2c, 0xc3, 0x25, 0xee, 0xe6, 0xd7, 0xfc, 0x4c,
  0xf2, 0xee, 0xd3, 0xe4, 0xef, 0x26, 0x08, 0x46, 0xab, 0x05, 0x28, 0x25,
  0x41, 0xe0, 0xeb, 0xfc, 0x39, 0x22, 0xfe, 0x40, 0xd7, 0xe7, 0xf8, 0x38,
  0x5b, 0xfe, 0x55, 0xf4, 0xd0, 0x02, 0x03, 0x35, 0xe7, 0xf8, 0x40, 0x16,
  0xc6, 0xef, 0xd6, 0xcf, 0x13, 0xec, 0xb5, 0xbb, 0xda, 0x43, 0x17, 0x10,
  0xe0, 0x4e, 0x05, 0xdc, 0x32, 0x20, 0xad, 0x1f, 0xff, 0xd5, 0xeb, 0xd5,
  0xe9, 0xd5, 0xfc, 0x09, 0x1c, 0x28, 0x06, 0xf9, 0xe5, 0x4c, 0x33, 0x29,
  0xed, 0x15, 0x21, 0xbd, 0x49, 0xea, 0x1e, 0xff, 0x35, 0x0e, 0xb3, 0x3f,
  0xdc, 0xb7, 0xfc, 0xfc, 0xfd, 0x07, 0x08, 0xee, 0x12, 0xf0, 0xef, 0xf3,
  0xd1, 0xc9, 0xc7, 0x0d, 0xf2, 0xe0, 0xfb, 0xd3, 0xc9, 0xe3, 0x07, 0x47,
  0x01, 0xc5, 0xcf, 0xa2, 0xfd, 0x5a, 0x5c, 0x19, 0x1b, 0x20, 0xac, 0x1c,
  0xd6, 0x18, 0xaf, 0x2f, 0xc4, 0x02, 0x0c, 0xea, 0x0c, 0xe1, 0x15, 0x2d,
  0xe5, 0xb3, 0x3d, 0xfd, 0xe2, 0x1a, 0x0c, 0x18, 0xdc, 0x49, 0x0e, 0xe6,
  0x37, 0xf2, 0x10, 0xbc, 0x14, 0x0c, 0x1c, 0xef, 0x07, 0x1e, 0xb2, 0x14,
  0x29, 0xca, 0xdb, 0x16, 0x18, 0x0a, 0x5e, 0xdf, 0x1f, 0x01, 0x22, 0x9d,
  0x03, 0x13, 0x1c, 0x13, 0x17, 0xdd, 0x18, 0x5f, 0x2d, 0xc1, 0x04, 0x42,
  0x5c, 0xad, 0x00, 0x4f, 0xe1, 0xe4, 0x05, 0xe3, 0x60, 0xec, 0x05, 0x27,
  0x1f, 0xfa, 0x09, 0xea, 0xea, 0xf1, 0x22, 0xe8, 0x22, 0xe3, 0xbe, 0x06,
  0x13, 0xf4, 0x2e, 0x3b, 0xce, 0xfb, 0xc0, 0xa6, 0x07, 0xdf, 0xb3, 0xb4,
  0x1e, 0x31, 0x0f, 0x02, 0xd9, 0x36, 0xab, 0xa3, 0x2f, 0xea, 0x2e, 0x2b,
  0xe5, 0xf9, 0x04, 0xc8, 0xda, 0x2e, 0xc7, 0x0e, 0x16, 0xb6, 0x09, 0xfe,
  0xd1, 0x49, 0xcf, 0xe0, 0xbf, 0xfc, 0x10, 0x29, 0x32, 0x02, 0x4e, 0x26,
  0xbc, 0x02, 0xfa, 0xef, 0x12, 0xfc, 0x1c, 0x0c, 0x16, 0x26, 0xcc, 0xe6,
  0xef, 0x3b, 0xc9, 0xa9, 0xfe, 0xcb, 0xdc, 0x06, 0xaa, 0xf2, 0x40, 0xbb,
  0x2f, 0xeb, 0xfd, 0xca, 0x2a, 0xe8, 0xf4, 0x4e, 0xfe, 0x34, 0x01, 0x06,
  0xd0, 0x0f, 0x10, 0xcf, 0xe1, 0x2c, 0xcb, 0x07, 0x1a, 0xf8, 0x12, 0x58,
  0xd4, 0x32, 0xb2, 0x24, 0x18, 0xf1, 0xc2, 0xd9, 0x10, 0x35, 0xfd, 0xf9,
  0xac, 0x26, 0x3f, 0xc1, 0x2b, 0xc5, 0xf5, 0xd3, 0x5d, 0x07, 0x35, 0x0c,
  0xdf, 0x15, 0x3c, 0x19, 0x0c, 0xc7, 0xc3, 0x0d, 0x1c, 0x1f, 0xbe, 0x59,
  0xdb, 0xe7, 0x27, 0xdb, 0xc3, 0xf1, 0xdc, 0xde, 0x67, 0x55, 0xc6, 0xf2,
  0xb7, 0xc7, 0xf3, 0xf6, 0x36, 0x02, 0xc1, 0xa5, 0xfd, 0x10, 0x4a, 0xfb,
  0xf5, 0x35, 0xed, 0x1e, 0xcc, 0x09, 0xe9, 0x3b, 0x04, 0xd7, 0x4b, 0x03,
  0x15, 0xfd, 0x1d, 0xe6, 0xab, 0xde, 0xbd, 0xce, 0x1a, 0xe9, 0x0e, 0xd2,
  0xf4, 0x1f, 0x0b, 0xed, 0xf0, 0x0a, 0xc8, 0x3f, 0xe0, 0x1c, 0xd1, 0xa4,
  0xfe, 0x4d, 0x07, 0xea, 0x00, 0xb6, 0xd8, 0xb5, 0x26, 0x11, 0x3b, 0xf7,
  0xfc, 0x14, 0x1c, 0xeb, 0xbe, 0x00, 0xc9, 0x38, 0x07, 0x44, 0xc4, 0xdd,
  0xeb, 0xf5, 0xe5, 0x22, 0xe2, 0xef, 0x12, 0x35, 0x04, 0xe7, 0x10, 0xbe,
  0x07, 0x2a, 0xee, 0xe2, 0x12, 0x68, 0x1f, 0xef, 0xf7, 0x4b, 0xc8, 0x24,
  0x00, 0x46, 0xc9, 0xe8, 0xf7, 0x3a, 0xda, 0xc0, 0x06, 0x11, 0x19, 0x69,
  0x08, 0xe7, 0x18, 0x03, 0xb6, 0x34, 0xea, 0xb5, 0x17, 0xd2, 0x1b, 0xfc,
  0xe7, 0xf1, 0x13, 0xea, 0xce, 0xd1, 0xf3, 0xbb, 0x02, 0x0b, 0x03, 0x6b,
  0x61, 0x47, 0xf9, 0xeb, 0xe2, 0xe6, 0x27, 0x1a, 0x4e, 0xb6, 0xf8, 0x12,
  0x01, 0x0d, 0xaa, 0xbe, 0x18, 0xbf, 0xbb, 0x17, 0x28, 0x2d, 0x25, 0x0d,
  0xc1, 0xf4, 0x22, 0xb2, 0xe6, 0xe1, 0xb9, 0x42, 0xd6, 0xd6, 0x04, 0xbf,
  0x16, 0x55, 0x06, 0x44, 0x34, 0xaf, 0xe1, 0xfb, 0xe8, 0x00, 0x21, 0xa3,
  0x3d, 0x1b, 0x18, 0xe2, 0x21, 0xda, 0xbe, 0x14, 0x54, 0xcd, 0xfc, 0x09,
  0x1c, 0x33, 0xcb, 0x06, 0x2d, 0x35, 0x1e, 0xdc, 0x1d, 0xe7, 0x43, 0x16,
  0xf3, 0xe9, 0x36, 0xaf, 0x2d, 0xdc, 0xcd, 0x4d, 0xd2, 0xc4, 0xf0, 0xfe,
  0xbb, 0x11, 0xce, 0x1c, 0xdf, 0xf1, 0x15, 0xee, 0xaf, 0x1a, 0xdc, 0xfa,
  0x37, 0x1d, 0x15, 0x30, 0x1e, 0xda, 0x3f, 0xdf, 0x29, 0xc6, 0xe0, 0xb7,
  0x2b, 0xc2, 0x2e, 0xf9, 0x24, 0x06, 0x49, 0xae, 0x23, 0x16, 0xf4, 0xd7,
  0xed, 0x57, 0x55, 0x18, 0x45, 0xed, 0x07, 0xbf, 0x07, 0x0b, 0x25, 0xf5,
  0x1d, 0x03, 0xc9, 0xe3, 0xca, 0xfc, 0x1f, 0xdc, 0x43, 0xfc, 0xce, 0x07,
  0xf5, 0xad, 0xe4, 0x27, 0xfa, 0x16, 0xc0, 0x42, 0x3a, 0x12, 0x03, 0x0a,
  0x25, 0x64, 0xae, 0x57, 0x10, 0x40, 0x50, 0x49, 0xef, 0x3e, 0x0e, 0xdb,
  0x38, 0xe2, 0xe9, 0x0a, 0x0e, 0x2b, 0xac, 0x13, 0xb1, 0xb1, 0xf5, 0x20,
  0x32, 0xf3, 0x4f, 0x3b, 0xfd, 0x39, 0xe2, 0xe7, 0xd8, 0x26, 0x23, 0xca,
  0xda, 0x19, 0xd7, 0x4f, 0xbe, 0xdf, 0x00, 0x0d, 0x18, 0x18, 0xbe, 0x2e,
  0x30, 0xbb, 0x12, 0xd6, 0x26, 0xaf, 0x10, 0x02, 0x37, 0x2e, 0x00, 0xa1,
  0xa6, 0xad, 0xb4, 0x20, 0x19, 0xee, 0xe2, 0x0a, 0xfb, 0x44, 0xfc, 0x09,
  0x06, 0x14, 0xac, 0x28, 0xfa, 0xd2, 0xe2, 0x17, 0x3b, 0xdf, 0x17, 0x3c,
  0xb2, 0xe9, 0x56, 0xf5, 0x06, 0xcc, 0xd3, 0xf1, 0xdf, 0xbe, 0xf1, 0xff,
  0xcd, 0x18, 0xfc, 0xd9, 0xb7, 0xae, 0xc3, 0x09, 0xc0, 0xab, 0xf3, 0xef,
  0x38, 0xe2, 0xce, 0x05, 0xd6, 0xe4, 0xe7, 0x27, 0x08, 0x14, 0x37, 0xff,
  0xa6, 0x0e, 0xe7, 0xe6, 0x9b, 0xee, 0xd5, 0x1c, 0x11, 0x0e, 0xfd, 0x1a,
  0xc6, 0x26, 0x17, 0x30, 0x06, 0xe0, 0xc7, 0xf1, 0x04, 0x42, 0xaf, 0x05,
  0xe1, 0xcd, 0xdf, 0xd7, 0xef, 0x35, 0x39, 0x36, 0x26, 0xe9, 0x00, 0x03,
  0x04, 0x06, 0x0b, 0xc9, 0x1d, 0xaa, 0xc5, 0x23, 0x4e, 0x5c, 0xf6, 0xc6,
  0xb5, 0xa3, 0x33, 0x1d, 0x0e, 0x39, 0x07, 0xee, 0xf6, 0xdb, 0xaf, 0x99,
  0xc3, 0x13, 0x01, 0xcc, 0xe6, 0x1c, 0xb6, 0x21, 0xdb, 0x09, 0xf1, 0xb3,
  0xb5, 0x02, 0xe6, 0x2d, 0xfa, 0x50, 0xc0, 0x32, 0x14, 0xec, 0x04, 0x22,
  0xbf, 0xfe, 0x03, 0x10, 0xf2, 0x21, 0x09, 0x18, 0x43, 0x20, 0x4e, 0xee,
  0xdb, 0x18, 0xec, 0x0d, 0xe6, 0xe5, 0x9f, 0xc8, 0xdb, 0xbd, 0x33, 0x0b,
  0x11, 0xd3, 0x14, 0xe0, 0x5a, 0xf3, 0xcf, 0xc6, 0xa8, 0x08, 0x06, 0x10,
  0x0a, 0xde, 0x4d, 0xed, 0x15, 0x4f, 0xc8, 0xc2, 0x47, 0xfd, 0x05, 0x0d,
  0x0d, 0xf6, 0xad, 0x37, 0x2b, 0xf9, 0xe1, 0xc3, 0x20, 0x17, 0x37, 0xe9,
  0x34, 0x42, 0x05, 0x1d, 0xe4, 0x20, 0xb8, 0xe2, 0x98, 0x2a, 0xdc, 0x4f,
  0xc8, 0xce, 0xc6, 0xef, 0xea, 0xde, 0xa9, 0xee, 0xf1, 0x20, 0x1e, 0x3f,
  0x56, 0xe1, 0x37, 0x0a, 0x03, 0xbc, 0xe3, 0xe9, 0xcc, 0xf6, 0xb2, 0xcb,
  0xc4, 0x0c, 0xf6, 0x0f, 0x06, 0x37, 0xda, 0x51, 0x0c, 0x50, 0x11, 0x4d,
  0x21, 0xee, 0xc9, 0xab, 0xf2, 0xeb, 0xb1, 0x19, 0x33, 0xfd, 0xec, 0x11,
  0xee, 0x2b, 0x1d, 0x0a, 0x2e, 0xf8, 0xfe, 0x39, 0xe6, 0x02, 0x15, 0x3c,
  0xd8, 0x28, 0xf2, 0xbb, 0x24, 0x03, 0x0f, 0x3e, 0xf2, 0xb8, 0x08, 0xda,
  0x04, 0x1a, 0x30, 0xfb, 0x04, 0xe8, 0xdc, 0xf8, 0x1d, 0xf3, 0x25, 0x43,
  0xf3, 0x46, 0x0d, 0xb4, 0xfb, 0x17, 0x07, 0x0c, 0x0d, 0x09, 0xca, 0xee,
  0x27, 0xd7, 0x33, 0xdc, 0x01, 0xe5, 0xde, 0xe6, 0x21, 0x0f, 0x35, 0x1d,
  0xb7, 0xe1, 0xde, 0xdc, 0x34, 0xed, 0x17, 0x08, 0x2e, 0x2d, 0x04, 0x39,
  0xf8, 0xf8, 0xf3, 0x47, 0xe0, 0xa5, 0x0a, 0xfc, 0xa2, 0x21, 0x05, 0x5b,
  0x34, 0xd7, 0x13, 0x29, 0x42, 0x1a, 0xe3, 0xd7, 0xe2, 0x11, 0x38, 0xa7,
  0x44, 0x3a, 0xfe, 0xd8, 0xe9, 0xf1, 0x55, 0x1c, 0xdc, 0xea, 0x0d, 0xc9,
  0x24, 0xff, 0x43, 0xdd, 0x4f, 0x16, 0x44, 0x0f, 0xfd, 0x17, 0x41, 0x2c,
  0xf3, 0xce, 0xcd, 0xdf, 0x5b, 0xe6, 0x30, 0x26, 0xf8, 0xa7, 0x14, 0xab,
  0xb7, 0x06, 0x02, 0xdd, 0xf5, 0xc8, 0xee, 0x2d, 0x00, 0x30, 0xe5, 0x13,
  0x3c, 0xf8, 0x3c, 0x03, 0xac, 0x1d, 0xc4, 0x2b, 0x46, 0x1a, 0x22, 0x25,
  0x10, 0xd1, 0xe2, 0xd9, 0x2e, 0xf1, 0x02, 0x1b, 0x4f, 0xc0, 0xe6, 0xca,
  0x56, 0xf8, 0xd3, 0xf3, 0x3c, 0xf1, 0xf3, 0xb6, 0xdd, 0xf0, 0x2d, 0xfc,
  0xd8, 0xe3, 0x28, 0x0a, 0x4a, 0x2a, 0xee, 0x4b, 0xed, 0xea, 0xf4, 0x46,
  0x06, 0x10, 0x10, 0xf0, 0x57, 0x06, 0xc2, 0x12, 0x1b, 0xef, 0xda, 0x37,
  0xe2, 0xe1, 0x50, 0xe9, 0x18, 0xd0, 0xb8, 0x1d, 0xd1, 0xfa, 0xbe, 0xc1,
  0x0c, 0xe6, 0xec, 0x50, 0x36, 0x0f, 0xd5, 0x18, 0x17, 0x23, 0x51, 0x06,
  0xa1, 0x0e, 0x5d, 0x18, 0xa0, 0x29, 0xc8, 0x42, 0xfc, 0xff, 0x2e, 0x36,
  0xea, 0x0e, 0xfd, 0xe0, 0x39, 0xd6, 0x05, 0x58, 0x23, 0xd9, 0xd5, 0x4c,
  0x1f, 0x18, 0x21, 0x13, 0x35, 0x16, 0x0c, 0x07, 0x30, 0x41, 0x2c, 0xf9,
  0xb8, 0xbf, 0x0a, 0xfc, 0x20, 0xfa, 0x3b, 0xe7, 0x05, 0xfd, 0x05, 0x29,
  0x2e, 0x1c, 0x08, 0x26, 0x05, 0xf9, 0x3f, 0xe9, 0x02, 0xad, 0x49, 0x46,
  0x09, 0xed, 0xbc, 0x05, 0xff, 0xf1, 0xa7, 0xea, 0x03, 0xef, 0xca, 0xa8,
  0x39, 0x0d, 0x45, 0xe4, 0xb1, 0xdd, 0x57, 0xce, 0x17, 0x14, 0xef, 0x1f,
  0xcf, 0x06, 0xe0, 0xc3, 0x5b, 0xe2, 0x01, 0x00, 0xec, 0xa6, 0xc3, 0x25,
  0x03, 0xda, 0x16, 0xf5, 0x23, 0x0b, 0x01, 0x02, 0xd7, 0xe6, 0x1d, 0xf1,
  0x07, 0x05, 0x05, 0xdb, 0x09, 0x4d, 0x0b, 0x2c, 0x54, 0xe3, 0x0c, 0x0e,
  0x05, 0x25, 0x05, 0x21, 0xed, 0x04, 0xd6, 0xb5, 0xf9, 0x02, 0x30, 0xfa,
  0x45, 0x1e, 0xd3, 0xf9, 0xf4, 0x1e, 0x0a, 0x2b, 0xdf, 0x41, 0xb9, 0xdb,
  0xfd, 0x19, 0x12, 0xfb, 0x45, 0xd1, 0xc8, 0x12, 0x46, 0x3b, 0xf0, 0x04,
  0x33, 0xff, 0xe3, 0x23, 0xf6, 0x00, 0xc7, 0xb9, 0x2b, 0x4c, 0x09, 0xf3,
  0xdb, 0x07, 0xef, 0x35, 0xf0, 0x04, 0x16, 0x30, 0xfe, 0xf5, 0x38, 0x1d,
  0xbc, 0xe6, 0x20, 0xef, 0x07, 0xc0, 0xae, 0xe2, 0x1b, 0xce, 0x24, 0x19,
  0x4a, 0x10, 0xa2, 0x3f, 0xb2, 0x24, 0xd8, 0x4e, 0x38, 0xd3, 0x05, 0x17,
  0xfc, 0xee, 0xb3, 0xe9, 0x01, 0xe2, 0xc3, 0xf0, 0xe8, 0xd7, 0xde, 0xc6,
  0x1c, 0xfb, 0xd2, 0x0d, 0x1d, 0x1f, 0x4f, 0x28, 0xb5, 0x1e, 0x02, 0xec,
  0x34, 0xc3, 0xe0, 0x23, 0xdf, 0xfd, 0xe2, 0x39, 0x09, 0xd3, 0xf9, 0x3e,
  0x42, 0xe2, 0x01, 0xf7, 0x3a, 0x04, 0xe3, 0x25, 0xdf, 0xec, 0xf1, 0xe8,
  0x20, 0x10, 0x43, 0xfe, 0x57, 0xe8, 0xf6, 0xf1, 0x43, 0xe6, 0x1b, 0xb6,
  0x1f, 0x08, 0x4f, 0x1d, 0xe0, 0xd1, 0x32, 0xe0, 0x4d, 0xff, 0xe3, 0x4f,
  0x0b, 0xfb, 0xd2, 0xde, 0xc4, 0xed, 0x3c, 0x3a, 0xf5, 0x1c, 0x11, 0xdd,
  0x37, 0x3e, 0xd8, 0xf6, 0xcd, 0x28, 0xdf, 0x21, 0xde, 0xfd, 0xec, 0xdc,
  0x57, 0x14, 0x2f, 0xe1, 0xf1, 0xc8, 0x03, 0xfe, 0x4e, 0x25, 0xe4, 0xea,
  0xdb, 0xff, 0x4b, 0x26, 0xde, 0xfa, 0xcf, 0x3a, 0xfb, 0xe5, 0xf8, 0xe3,
  0xda, 0xfd, 0x12, 0xf4, 0xd3, 0x13, 0xf9, 0x1b, 0xd4, 0xe7, 0x22, 0xdd,
  0x09, 0xd4, 0xfd, 0xea, 0xf0, 0x23, 0x45, 0x5a, 0x11, 0x13, 0x04, 0xd9,
  0xec, 0xd6, 0xbc, 0xd8, 0xd4, 0x08, 0x00, 0xf3, 0xb1, 0x00, 0x0f, 0xb3,
  0xed, 0xfc, 0x1a, 0xcb, 0x00, 0x4a, 0xdd, 0x16, 0xad, 0x08, 0xc7, 0xee,
  0x0b, 0x02, 0xec, 0x06, 0x1c, 0xed, 0xbe, 0x31, 0xba, 0x4c, 0x02, 0xa5,
  0x58, 0x14, 0xf9, 0xdc, 0x23, 0x4c, 0x3a, 0x03, 0x16, 0xfd, 0xe6, 0xf3,
  0xcf, 0x1d, 0xf1, 0x51, 0x27, 0x1e, 0x34, 0x0a, 0xbd, 0x4a, 0x38, 0xef,
  0xf5, 0x58, 0xa4, 0x41, 0x2d, 0xd8, 0xe2, 0xd1, 0x46, 0xfc, 0x50, 0xcb,
  0x16, 0x1d, 0x01, 0x12, 0xfb, 0x61, 0x07, 0xf7, 0xe8, 0x1a, 0xe5, 0x0a,
  0xb5, 0x17, 0x36, 0x1f, 0xe4, 0xee, 0xd0, 0x06, 0x1f, 0x54, 0xe4, 0x0d,
  0x13, 0xd7, 0xbe, 0x57, 0x63, 0x1c, 0x17, 0x30, 0x08, 0x3e, 0x18, 0xff,
  0x29, 0x26, 0xed, 0xab, 0x2d, 0x0f, 0xeb, 0x07, 0x2a, 0xdb, 0xd2, 0xf6,
  0x32, 0xb2, 0xbe, 0xfc, 0xf5, 0xf2, 0x23, 0x29, 0x03, 0x44, 0x0a, 0xc1,
  0xfe, 0x4d, 0x31, 0x3b, 0xe4, 0x46, 0x08, 0xb0, 0xe1, 0xfe, 0x3b, 0xa8,
  0x21, 0xd1, 0xca, 0xed, 0x12, 0xe8, 0x3f, 0xe0, 0xeb, 0xf7, 0x13, 0x35,
  0xee, 0x00, 0xf2, 0x1e, 0x1e, 0xce, 0x03, 0x02, 0x65, 0xd1, 0xf9, 0xf5,
  0x43, 0xf7, 0x0a, 0xf7, 0x0e, 0xc9, 0x11, 0x43, 0xad, 0xd9, 0x1c, 0xd7,
  0x19, 0x36, 0xed, 0xcf, 0x18, 0xce, 0x2a, 0xf5, 0x3e, 0x40, 0x0b, 0xf5,
  0x01, 0xeb, 0xcc, 0xc1, 0x4a, 0x51, 0xe8, 0x0f, 0xaa, 0xee, 0xd6, 0x51,
  0xf6, 0x32, 0x51, 0x06, 0x05, 0x1e, 0x0a, 0xf9, 0x14, 0xe3, 0x40, 0x4e,
  0xbc, 0x30, 0xb7, 0xd9, 0x07, 0x1a, 0xbf, 0x00, 0x36, 0xf1, 0x4a, 0xfa,
  0x10, 0xff, 0xd3, 0xed, 0x28, 0x32, 0x15, 0xe2, 0x00, 0x27, 0xe5, 0xea,
  0x05, 0xd5, 0x34, 0xc9, 0xd2, 0x1b, 0xb2, 0x03, 0xf5, 0x24, 0x34, 0x16,
  0x04, 0xfe, 0xbd, 0xca, 0xd7, 0x14, 0xe5, 0xd3, 0x30, 0x20, 0x45, 0xdb,
  0x2b, 0x23, 0xd1, 0xff, 0x50, 0x0f, 0xf4, 0x3e, 0xf6, 0x37, 0xc4, 0xd7,
  0x2a, 0x01, 0xcc, 0xca, 0x4a, 0x0c, 0xfb, 0x4f, 0x22, 0xe6, 0x43, 0x10,
  0xe8, 0xfc, 0x16, 0xf3, 0xb3, 0xe7, 0x4c, 0xd1, 0xfe, 0x47, 0x0b, 0x1a,
  0x1c, 0xf2, 0xdf, 0x1e, 0x27, 0xfb, 0x09, 0xd9, 0x39, 0xb6, 0x37, 0x3e,
  0xec, 0x17, 0x0a, 0xf2, 0xde, 0xe5, 0x29, 0xea, 0xee, 0xc1, 0x32, 0x07,
  0x08, 0xda, 0x16, 0x14, 0xeb, 0xbd, 0xcf, 0xcc, 0xd2, 0xe1, 0x29, 0xd2,
  0xc3, 0xeb, 0x46, 0xa6, 0xd1, 0x55, 0xd3, 0x36, 0xf5, 0xfd, 0x03, 0x3e,
  0xcc, 0xc5, 0xca, 0x56, 0x26, 0x33, 0xf2, 0xd6, 0x07, 0xdd, 0xd6, 0x1e,
  0x0c, 0xd3, 0x0b, 0xfa, 0xaf, 0x4b, 0xf6, 0x55, 0xf0, 0x4a, 0x38, 0x1e,
  0xf3, 0xa2, 0x02, 0x2f, 0xee, 0x26, 0x0d, 0x20, 0x57, 0x2b, 0x24, 0xbc,
  0xfb, 0xcd, 0x1a, 0xe7, 0xf8, 0xa0, 0x57, 0xf7, 0xdf, 0x49, 0x1d, 0x53,
  0xa4, 0xe7, 0xb3, 0x26, 0x47, 0xac, 0xd3, 0xdc, 0x0a, 0x06, 0x07, 0xf3,
  0xf6, 0x24, 0xe0, 0xdb, 0x06, 0xee, 0x1e, 0x07, 0x9f, 0xd0, 0x29, 0xe7,
  0x0b, 0x28, 0xa7, 0xfb, 0xfc, 0xf8, 0x1d, 0x24, 0xe7, 0x22, 0x57, 0xff,
  0xde, 0x18, 0x03, 0xf0, 0x0f, 0x4e, 0xe0, 0xe3, 0xfa, 0xb8, 0x10, 0xf5,
  0xe9, 0x16, 0x0e, 0x1e, 0x11, 0x26, 0x10, 0xb5, 0xf0, 0x38, 0xfa, 0x05,
  0x4e, 0x17, 0xb4, 0x44, 0xce, 0xfc, 0xf0, 0xd2, 0x17, 0xdf, 0x22, 0x01,
  0xed, 0x36, 0xee, 0x28, 0xeb, 0x13, 0xc0, 0x06, 0xd7, 0x07, 0x19, 0xf2,
  0xa1, 0x09, 0x23, 0x19, 0x2e, 0xec, 0xd3, 0xe1, 0x42, 0x10, 0x11, 0x11,
  0x0c, 0x12, 0x3c, 0xc4, 0xf9, 0x05, 0x06, 0x1b, 0xe7, 0x45, 0x58, 0x07,
  0xf4, 0x3f, 0x1e, 0xf7, 0x9d, 0x10, 0x9d, 0xf5, 0x0b, 0x23, 0x3f, 0x05,
  0x25, 0xeb, 0x26, 0xbe, 0x17, 0xe2, 0xf0, 0x36, 0x15, 0x16, 0xda, 0xc0,
  0xf2, 0xff, 0x35, 0x15, 0x25, 0x3f, 0xac, 0xa1, 0x11, 0xab, 0x0f, 0x26,
  0xf8, 0x0f, 0x14, 0xd2, 0xe2, 0x33, 0xe7, 0xb2, 0xce, 0x2b, 0x2d, 0x0c,
  0xf9, 0x06, 0x27, 0x1b, 0x4c, 0x13, 0xac, 0x05, 0x4f, 0xe3, 0x04, 0xb8,
  0xd2, 0x1b, 0xbe, 0x13, 0xc4, 0x1c, 0x3f, 0x11, 0xad, 0xe6, 0x14, 0x00,
  0xf2, 0x29, 0x3f, 0x47, 0xe3, 0x12, 0x28, 0xea, 0x45, 0xff, 0xb5, 0x38,
  0x15, 0xfb, 0xce, 0xf4, 0x34, 0x2a, 0x2e, 0xc3, 0xeb, 0x13, 0x20, 0x1a,
  0xf2, 0x13, 0x38, 0x15, 0xf9, 0xc7, 0x5a, 0xe1, 0x15, 0xf2, 0x00, 0x29,
  0x45, 0x3e, 0x49, 0x37, 0x01, 0xb5, 0xbe, 0x07, 0x4f, 0xfd, 0xe7, 0xdf,
  0x35, 0xf3, 0x01, 0xb6, 0xbd, 0x5b, 0xbd, 0x0e, 0x01, 0x41, 0xfe, 0x38,
  0x4e, 0x17, 0xf2, 0x3d, 0xb6, 0x08, 0x57, 0xdc, 0x07, 0xaf, 0xee, 0xd3,
  0x08, 0xf5, 0xc9, 0xf5, 0xbc, 0xc2, 0x00, 0x05, 0x2f, 0xdc, 0xad, 0x19,
  0x4d, 0x1c, 0x15, 0x05, 0xde, 0x2d, 0x1f, 0xfc, 0xd2, 0x08, 0x36, 0xea,
  0x3c, 0x06, 0xf3, 0x29, 0x0c, 0x19, 0x31, 0x1e, 0xe5, 0x0a, 0x68, 0x10,
  0xb2, 0xd2, 0x21, 0xca, 0xb2, 0x1b, 0xec, 0x0d, 0xcd, 0xec, 0x6f, 0xbb,
  0x0d, 0x04, 0x05, 0x09, 0xd6, 0x02, 0x29, 0xd8, 0x63, 0x0f, 0x01, 0xd4,
  0xdc, 0x0d, 0xd9, 0xdf, 0xb2, 0xe5, 0xb5, 0x38, 0x53, 0x1c, 0x3d, 0x48,
  0x26, 0xdf, 0x35, 0xd0, 0x27, 0xef, 0xf0, 0x31, 0x0e, 0xe3, 0xd1, 0xb4,
  0x30, 0x0f, 0x32, 0xb6, 0x39, 0xc9, 0xf9, 0x0d, 0x0f, 0xea, 0xf7, 0x2a,
  0x41, 0xeb, 0xcd, 0x20, 0xf0, 0x25, 0xcb, 0x02, 0xc8, 0x04, 0xe1, 0x02,
  0xeb, 0xfe, 0x35, 0xf8, 0x58, 0xfb, 0x12, 0xf0, 0x0a, 0x23, 0x33, 0x30,
  0xc8, 0xd8, 0x17, 0xf4, 0xf0, 0x3c, 0x2d, 0xb6, 0xe4, 0x1d, 0x4b, 0x3d,
  0xe9, 0x3b, 0x18, 0x3e, 0xc1, 0xa3, 0x02, 0xca, 0x10, 0xac, 0x30, 0xfb,
  0x01, 0xd3, 0x15, 0x1e, 0xf6, 0x14, 0x14, 0xf5, 0xde, 0x2b, 0x1a, 0x22,
  0x00, 0x50, 0xf6, 0xd9, 0xc8, 0xf8, 0x3f, 0x3d, 0x26, 0x1d, 0x4b, 0x18,
  0x1d, 0x15, 0x2a, 0xf3, 0xed, 0xf9, 0xaa, 0xd7, 0x3c, 0xca, 0x21, 0xda,
  0xaf, 0x0b, 0x06, 0xf3, 0x91, 0xd7, 0xb8, 0x01, 0xcc, 0xc7, 0x2c, 0xca,
  0x82, 0x94, 0x03, 0x48, 0xc8, 0x0b, 0xb0, 0x05, 0xf5, 0x0a, 0xa0, 0xbd,
  0xf5, 0x00, 0x0a, 0xab, 0xe2, 0xcd, 0xc4, 0x23, 0x24, 0x30, 0x14, 0x1a,
  0xf1, 0xe3, 0x32, 0xc4, 0xe8, 0xd9, 0xf0, 0x19, 0x40, 0x05, 0x1b, 0xcc,
  0xd6, 0xec, 0x09, 0x0d, 0x02, 0x1c, 0xcd, 0x40, 0x18, 0xe5, 0xc7, 0xfd,
  0xb0, 0x38, 0xc3, 0x1a, 0x1e, 0x41, 0xb2, 0x25, 0xcd, 0xae, 0xc8, 0x26,
  0xcd, 0x27, 0xd2, 0xcb, 0xcd, 0x0f, 0xb0, 0x38, 0x0c, 0xbf, 0x11, 0x44,
  0xc8, 0xb7, 0x30, 0xd4, 0xe8, 0x33, 0x1b, 0xeb, 0x02, 0x0e, 0x0d, 0x0d,
  0xb6, 0x3d, 0x46, 0x2a, 0x23, 0x1a, 0x9a, 0xb2, 0x2b, 0x51, 0x0c, 0xa3,
  0xab, 0xfc, 0x05, 0xf2, 0xa5, 0x12, 0xd3, 0xa0, 0x2e, 0xe4, 0xd5, 0xee,
  0x14, 0xee, 0x5d, 0xfe, 0xe6, 0x1a, 0xd4, 0xbe, 0x7f, 0xff, 0xfb, 0xd7,
  0x25, 0xf5, 0x17, 0x16, 0x1e, 0xf8, 0xc9, 0x0c, 0x1d, 0x05, 0xf8, 0xa1,
  0x97, 0x09, 0x18, 0x41, 0x38, 0xd5, 0x82, 0x58, 0x30, 0x22, 0xe8, 0x58,
  0xb4, 0x0e, 0x35, 0xe6, 0x51, 0xd1, 0xbe, 0x42, 0x34, 0x14, 0xfe, 0xc5,
  0xcd, 0x44, 0x06, 0x4e, 0xa9, 0x38, 0xa9, 0xe4, 0x52, 0xf4, 0x27, 0xe8,
  0xca, 0x1c, 0x03, 0xea, 0x3c, 0x3e, 0xf0, 0x24, 0xbe, 0xff, 0x17, 0xd3,
  0xcb, 0xa2, 0x22, 0x2c, 0x28, 0x50, 0xea, 0x40, 0xf5, 0x1f, 0xad, 0xec,
  0x03, 0xf8, 0x41, 0x1f, 0xea, 0x1c, 0xd2, 0x2b, 0x20, 0x40, 0x1a, 0x1b,
  0x0d, 0x25, 0x08, 0xd8, 0xc7, 0x1d, 0x1f, 0xd5, 0xde, 0xa5, 0x0b, 0xf2,
  0xeb, 0x04, 0xef, 0x15, 0x3a, 0xc2, 0x30, 0xa5, 0x06, 0x26, 0x01, 0xf4,
  0xde, 0x5e, 0xd4, 0x24, 0xd6, 0x2a, 0x32, 0x43, 0xed, 0xd9, 0x3a, 0xec,
  0xed, 0xf8, 0xdb, 0x41, 0x0d, 0xef, 0x04, 0xe9, 0xf7, 0x1b, 0x0b, 0x17,
  0x4f, 0x18, 0xb4, 0x1f, 0xf1, 0xad, 0x0a, 0x25, 0xf1, 0x33, 0xf5, 0xf4,
  0xae, 0xee, 0x43, 0x00, 0x32, 0x49, 0x47, 0xba, 0xe9, 0x19, 0xf5, 0xb0,
  0x3a, 0x11, 0x15, 0x17, 0x25, 0x04, 0x56, 0xfd, 0xe2, 0x24, 0x25, 0xde,
  0xf5, 0x3c, 0xf6, 0x09, 0x2d, 0x31, 0x02, 0x4e, 0xc4, 0xdd, 0x21, 0xfc,
  0x24, 0x1b, 0x14, 0xff, 0xd4, 0x04, 0xde, 0xf3, 0xa9, 0xf7, 0xb8, 0xe0,
  0x15, 0x39, 0x40, 0xc7, 0xcf, 0xe4, 0xcc, 0x10, 0x31, 0xdf, 0x40, 0xc9,
  0xc4, 0x03, 0x3f, 0xc7, 0xfc, 0x0b, 0xe9, 0x24, 0xdf, 0xd4, 0xc9, 0x2e,
  0xed, 0xdf, 0xc4, 0x3b, 0x38, 0xf5, 0x38, 0xd6, 0x54, 0xec, 0xe0, 0x01,
  0x2d, 0xe7, 0x40, 0xc0, 0x16, 0xd7, 0x07, 0x07, 0x27, 0x13, 0x1e, 0x48,
  0x13, 0xfe, 0x1a, 0xd0, 0x44, 0xd5, 0xc1, 0x34, 0x2a, 0x37, 0x17, 0xe1,
  0x1b, 0xf2, 0x0c, 0x49, 0x0d, 0x1a, 0xe7, 0x34, 0xf6, 0xef, 0x0a, 0x18,
  0x58, 0x18, 0xa3, 0x54, 0xdc, 0xfe, 0x07, 0x16, 0xe8, 0xb5, 0xd5, 0xcb,
  0xe5, 0xce, 0x0c, 0xfc, 0x2e, 0x2f, 0x5e, 0x09, 0xed, 0x1e, 0x06, 0x57,
  0x5a, 0x39, 0x5a, 0x2b, 0xd6, 0x0c, 0x25, 0xd5, 0x2f, 0xee, 0xf1, 0x20,
  0xfc, 0x26, 0x25, 0x08, 0x1e, 0xbc, 0xcd, 0xec, 0xdd, 0x02, 0x09, 0x20,
  0xf3, 0xd6, 0x59, 0xe6, 0xa2, 0xe9, 0xde, 0xf1, 0xe7, 0xcc, 0xc9, 0xdf,
  0x01, 0x39, 0xd2, 0x06, 0xf9, 0x19, 0x56, 0xcf, 0x2d, 0x3a, 0x30, 0xf8,
  0xde, 0xdf, 0x00, 0x08, 0x28, 0xc8, 0x26, 0x02, 0xe0, 0xf5, 0x35, 0xa5,
  0x19, 0x0f, 0xbe, 0xf0, 0xfb, 0xec, 0xef, 0xea, 0x19, 0x16, 0xbc, 0xe4,
  0x02, 0x53, 0xf8, 0xe3, 0x2c, 0x3c, 0x40, 0x52, 0xc0, 0x0e, 0x11, 0xe5,
  0xd6, 0xfe, 0xbe, 0xf5, 0x3d, 0x19, 0x18, 0x15, 0xc0, 0xe1, 0xf9, 0xdc,
  0xdb, 0xfe, 0x00, 0xc4, 0x19, 0xf5, 0xe4, 0xf9, 0x0f, 0xee, 0x21, 0xed,
  0xfd, 0x30, 0xfb, 0xda, 0xf7, 0x46, 0x07, 0xd5, 0xd6, 0x29, 0xb0, 0x15,
  0x16, 0xe0, 0xef, 0x09, 0xdb, 0x0a, 0xed, 0xbc, 0x10, 0xf6, 0x27, 0xf0,
  0x29, 0x21, 0xde, 0xf9, 0xfa, 0xe6, 0x29, 0xfc, 0x00, 0x36, 0xff, 0xb1,
  0x14, 0xa5, 0x0e, 0xe4, 0xc6, 0x50, 0xa1, 0xe9, 0x41, 0xd2, 0xf7, 0x30,
  0xee, 0x38, 0x1c, 0x19, 0x2b, 0xef, 0xc6, 0xcf, 0x04, 0x21, 0x09, 0x00,
  0x04, 0xf0, 0x13, 0x01, 0x20, 0xd9, 0x20, 0x05, 0xe4, 0xb5, 0xbc, 0x1a,
  0xd8, 0xe1, 0x21, 0xb0, 0x30, 0xca, 0xf7, 0x07, 0x2b, 0xd6, 0x0e, 0xd0,
  0x43, 0x12, 0xcb, 0x26, 0x0c, 0x01, 0x06, 0xed, 0x38, 0x0e, 0x12, 0xcf,
  0xae, 0xaf, 0x09, 0xfc, 0xf7, 0x33, 0x12, 0xe7, 0xce, 0xd6, 0x0f, 0x0a,
  0x1b, 0x48, 0x55, 0x01, 0x15, 0xe4, 0x02, 0xa1, 0x4e, 0x2f, 0xdf, 0xf6,
  0x0e, 0x49, 0xdf, 0xa9, 0x1a, 0xd8, 0x12, 0x2d, 0x03, 0x38, 0xe5, 0x10,
  0xee, 0xe7, 0xd4, 0x0d, 0x3b, 0x39, 0x5e, 0x38, 0xeb, 0xa4, 0x04, 0x1e,
  0xe4, 0xfc, 0x30, 0x21, 0xcd, 0x3f, 0xf9, 0x1e, 0xac, 0x2e, 0x1b, 0xf1,
  0x22, 0x03, 0x9e, 0xf7, 0xd0, 0x05, 0x1e, 0xa4, 0xfb, 0x16, 0x06, 0xe4,
  0xef, 0xd7, 0xde, 0x47, 0xe2, 0xf6, 0x1d, 0x12, 0xf9, 0xf4, 0x04, 0xc9,
  0xfa, 0x35, 0xdf, 0xe9, 0x35, 0x41, 0x15, 0x09, 0xc9, 0xb4, 0x2f, 0x37,
  0xe8, 0x13, 0xa9, 0x04, 0xea, 0xeb, 0xc3, 0xfa, 0x45, 0xba, 0x06, 0xd3,
  0x66, 0xea, 0x2d, 0xa7, 0x49, 0x4f, 0x13, 0x38, 0x03, 0x31, 0x06, 0x0e,
  0x24, 0x1c, 0xe6, 0x00, 0x50, 0xfa, 0x3a, 0x2a, 0xf4, 0xc0, 0x03, 0xfe,
  0xed, 0xaf, 0x00, 0x17, 0x58, 0xc5, 0xeb, 0xed, 0x08, 0xe3, 0xcf, 0x3a,
  0xea, 0xce, 0x0d, 0x18, 0x10, 0xf7, 0x27, 0xdd, 0x09, 0xff, 0x0f, 0xf7,
  0xf2, 0x01, 0xed, 0x42, 0xe9, 0xe0, 0xe8, 0xc3, 0xbf, 0x31, 0x37, 0x30,
  0x36, 0xf9, 0xab, 0xfd, 0x1e, 0x01, 0x2c, 0x28, 0xb2, 0xd6, 0xe1, 0x4e,
  0xf8, 0xd1, 0xe6, 0x04, 0xb7, 0x04, 0xb1, 0xcb, 0xbd, 0xf8, 0xa7, 0xc0,
  0xc4, 0xcf, 0x03, 0xea, 0xa9, 0xf9, 0x3b, 0x10, 0x37, 0x4e, 0xff, 0x3d,
  0xfe, 0x07, 0x13, 0xb5, 0x13, 0xf3, 0x25, 0x22, 0x62, 0xea, 0x29, 0x0d,
  0xc7, 0xef, 0xa9, 0xf6, 0xfd, 0x6b, 0xb0, 0x22, 0xf3, 0xdd, 0xfa, 0xf2,
  0xdb, 0xdd, 0xc7, 0xe7, 0x26, 0xc8, 0x1f, 0xc1, 0x1a, 0x37, 0x0b, 0x52,
  0xc5, 0xa1, 0xdf, 0x58, 0xcd, 0xb2, 0x05, 0x34, 0xc0, 0xe7, 0xbd, 0x1e,
  0x34, 0x09, 0xc2, 0x31, 0xe6, 0x54, 0x32, 0xff, 0xa1, 0xfa, 0xe6, 0xe1,
  0xf2, 0xf8, 0x19, 0xeb, 0x07, 0x5a, 0x64, 0xde, 0xf8, 0x18, 0xc3, 0xc2,
  0x1e, 0xf0, 0xf9, 0xc5, 0x11, 0xd0, 0x21, 0xea, 0xf7, 0xe5, 0x1f, 0x35,
  0xdf, 0xf7, 0x9e, 0xf0, 0xa5, 0x01, 0xa2, 0xd9, 0xca, 0x01, 0xc4, 0x25,
  0xe8, 0x2c, 0xfd, 0xd4, 0xd8, 0xae, 0x3a, 0x16, 0x45, 0xd4, 0xe8, 0x47,
  0x54, 0x56, 0x06, 0x5b, 0x15, 0xac, 0xfe, 0x47, 0x1c, 0x08, 0xe9, 0xed,
  0x25, 0xaa, 0x0c, 0xf5, 0x2d, 0xec, 0x0c, 0x2f, 0xdc, 0xa8, 0xba, 0xd9,
  0x1e, 0xf2, 0x2f, 0x03, 0xe1, 0x21, 0x38, 0x0a, 0x12, 0xf5, 0x4c, 0xfa,
  0x52, 0x15, 0x0f, 0x15, 0x24, 0xc4, 0x35, 0x00, 0xdf, 0x2b, 0xfd, 0xdb,
  0xf5, 0xf7, 0x1f, 0xee, 0x4f, 0x45, 0x41, 0xd3, 0xd9, 0xfd, 0x57, 0x07,
  0x16, 0xbf, 0xee, 0xdc, 0x08, 0x05, 0x38, 0x03, 0x25, 0xed, 0x25, 0x39,
  0xd3, 0x3e, 0xec, 0xcf, 0x19, 0x4b, 0xd1, 0xc5, 0x31, 0xa9, 0x02, 0xf0,
  0xeb, 0x13, 0x1e, 0x15, 0x05, 0x54, 0xdc, 0x15, 0x21, 0x3a, 0xe6, 0xd0,
  0xdb, 0x51, 0xc7, 0xed, 0xf3, 0x35, 0x0a, 0x15, 0xb1, 0xaf, 0x02, 0xc3,
  0xd8, 0xf0, 0xd8, 0x44, 0xf3, 0xba, 0xf1, 0xf9, 0x1d, 0x26, 0xeb, 0xe9,
  0xe8, 0x19, 0x54, 0x2a, 0x4c, 0xd5, 0xd4, 0xc7, 0x0c, 0x1a, 0xe0, 0x3c,
  0xcd, 0x35, 0xfb, 0xe6, 0xc1, 0xcd, 0xf5, 0x03, 0xda, 0x1f, 0xfc, 0x1a,
  0x16, 0xba, 0x1c, 0x12, 0x1a, 0x56, 0x3b, 0xe7, 0xf5, 0x00, 0xe7, 0xec,
  0x1f, 0x5b, 0x1c, 0xfb, 0xd1, 0xfe, 0xd2, 0xe5, 0xf7, 0x03, 0xde, 0xd6,
  0x4c, 0xd6, 0x61, 0xfa, 0x2d, 0x0b, 0x06, 0xf7, 0x5f, 0xc9, 0xc7, 0x5c,
  0x17, 0xcc, 0xf5, 0x15, 0x22, 0xfe, 0x2c, 0xde, 0xe9, 0xe7, 0x08, 0xc5,
  0xaf, 0x3f, 0xa8, 0x1f, 0xdc, 0xcf, 0xb2, 0x0a, 0xf6, 0xf1, 0xcc, 0x0c,
  0x0c, 0x5e, 0xa7, 0xde, 0x0d, 0x1a, 0xc5, 0xaa, 0xdc, 0xea, 0x15, 0xc3,
  0x9b, 0xe2, 0x19, 0xa9, 0xf6, 0xb5, 0x3d, 0xd3, 0x0c, 0x2d, 0xfb, 0x00,
  0xe1, 0x5b, 0x48, 0x0b, 0xf0, 0x04, 0xdd, 0xb3, 0x1e, 0xfe, 0xfc, 0x07,
  0xcb, 0x17, 0x9c, 0x23, 0xad, 0xf1, 0x26, 0xaa, 0xf0, 0xf9, 0x09, 0x2b,
  0xec, 0x1e, 0x08, 0xc7, 0xb5, 0x2b, 0xf2, 0xc7, 0x47, 0x41, 0xfb, 0x2b,
  0x05, 0xf0, 0xe1, 0xa0, 0xe8, 0xde, 0x30, 0x10, 0x53, 0xf3, 0xfb, 0x28,
  0x21, 0xb4, 0xad, 0xef, 0x28, 0x03, 0x09, 0x1d, 0xf3, 0xc9, 0x19, 0xf0,
  0x0a, 0x48, 0x1e, 0x07, 0xfd, 0xf7, 0xef, 0x43, 0xdb, 0xd3, 0xbd, 0x05,
  0xc8, 0x60, 0x03, 0xe6, 0x1a, 0x24, 0xd9, 0xe1, 0xe4, 0x33, 0x24, 0xe9,
  0xff, 0x31, 0x2c, 0x11, 0xfc, 0x25, 0x9c, 0xf0, 0xd9, 0x0c, 0xeb, 0xff,
  0x0a, 0xe2, 0x14, 0x12, 0x44, 0x15, 0x12, 0x34, 0x08, 0xc9, 0xbe, 0xf1,
  0x3c, 0x0c, 0xfc, 0x0c, 0x19, 0xfa, 0xe6, 0x2b, 0x18, 0x2d, 0x34, 0x09,
  0x3f, 0x22, 0x2c, 0x54, 0xbd, 0xeb, 0x4e, 0xf9, 0x39, 0x2a, 0xd5, 0x41,
  0xec, 0xbf, 0x08, 0xf1, 0xf3, 0xed, 0xe2, 0xd5, 0xee, 0x04, 0x09, 0xe9,
  0x03, 0xef, 0xfe, 0x1a, 0xd8, 0xf7, 0x3a, 0xf1, 0xe4, 0x34, 0xe9, 0xf7,
  0x3a, 0xf5, 0xf8, 0xc5, 0x1d, 0xd3, 0xca, 0x5b, 0x16, 0x23, 0x1c, 0x13,
  0x16, 0xf3, 0xfc, 0x18, 0xc7, 0xd0, 0xa8, 0xd4, 0x0b, 0xf5, 0xb0, 0x45,
  0x5b, 0x1c, 0x1f, 0x35, 0x1d, 0xb6, 0x0d, 0xcf, 0x06, 0x0e, 0x19, 0xe9,
  0x10, 0xc6, 0xf9, 0x31, 0x22, 0xcf, 0xa7, 0xf5, 0x30, 0x22, 0x48, 0xfc,
  0x24, 0xcc, 0x39, 0xc2, 0x17, 0x07, 0xc7, 0xe2, 0xe5, 0x27, 0xdf, 0xca,
  0x1d, 0xf4, 0x04, 0x09, 0x45, 0x0f, 0x38, 0xd7, 0x40, 0x19, 0xf7, 0xd2,
  0xa7, 0xd8, 0x00, 0x0c, 0xe7, 0x3a, 0x1a, 0xd3, 0xd5, 0x0b, 0x1d, 0xf3,
  0xde, 0x28, 0xd5, 0x55, 0xa4, 0xae, 0xd7, 0xd4, 0xcd, 0x52, 0xe2, 0x25,
  0x15, 0xc0, 0x17, 0xcd, 0x59, 0xc5, 0x08, 0xc7, 0x56, 0x2b, 0x3d, 0x0b,
  0xfd, 0xdc, 0x02, 0x0a, 0xee, 0x19, 0xbe, 0xc9, 0x3c, 0x1b, 0xce, 0xff,
  0xd0, 0x18, 0x32, 0x09, 0x40, 0x27, 0x24, 0xc7, 0x2d, 0x14, 0xd2, 0xe4,
  0xc2, 0xe9, 0x10, 0xfa, 0xca, 0xbd, 0xae, 0x40, 0xc8, 0xde, 0x39, 0x04,
  0xd6, 0x48, 0x2b, 0xd7, 0xd1, 0xb1, 0xcf, 0x1e, 0x3b, 0x12, 0xab, 0x07,
  0xdc, 0xfe, 0xeb, 0xe1, 0x00, 0xe1, 0x9c, 0x28, 0x42, 0x50, 0x35, 0x3e,
  0x3a, 0xed, 0x0c, 0xe9, 0x29, 0xea, 0xfb, 0x3d, 0x06, 0xdd, 0x23, 0x09,
  0xb1, 0xf8, 0xea, 0xd6, 0x28, 0x0b, 0x02, 0x12, 0x3a, 0xf7, 0xf5, 0x2e,
  0xe6, 0x5b, 0x12, 0xda, 0xdd, 0x26, 0xf9, 0xb4, 0xee, 0xec, 0xc3, 0xc9,
  0xc0, 0xf3, 0xf1, 0xc8, 0x0c, 0x04, 0xc6, 0x1f, 0x09, 0xf4, 0xa1, 0x16,
  0x01, 0x3e, 0x08, 0x2a, 0xeb, 0x14, 0xc2, 0xdb, 0xae, 0x09, 0xf6, 0xd4,
  0x17, 0x08, 0x0c, 0xdd, 0xe0, 0xcd, 0x2d, 0xac, 0xf8, 0x04, 0xea, 0x06,
  0x56, 0x2b, 0x04, 0x24, 0x1d, 0xcd, 0xb2, 0xbe, 0x01, 0xbf, 0xee, 0xab,
  0xdd, 0x13, 0xe2, 0xa8, 0xdf, 0x23, 0xfd, 0x22, 0x23, 0xe2, 0xe1, 0xfd,
  0x3d, 0x49, 0xeb, 0xd6, 0x1a, 0x23, 0x34, 0xe2, 0x2b, 0xd4, 0xa6, 0x17,
  0xbd, 0x31, 0x38, 0x4a, 0x05, 0x04, 0x15, 0x16, 0xd2, 0xf5, 0x05, 0xd4,
  0x63, 0x1a, 0xf1, 0xf1, 0x21, 0x22, 0x61, 0xc8, 0xf6, 0x19, 0xf6, 0xee,
  0xde, 0x24, 0xce, 0xd4, 0xc7, 0x35, 0xf5, 0xc6, 0xb7, 0x14, 0xae, 0x11,
  0x42, 0x3a, 0xe5, 0xe2, 0xd3, 0xd0, 0x26, 0xca, 0xdb, 0x2e, 0xe9, 0xf2,
  0xe8, 0x12, 0x1f, 0x53, 0xcf, 0x33, 0xd2, 0xc2, 0x1d, 0xaa, 0xa4, 0xd0,
  0xfd, 0xcc, 0xf5, 0xe4, 0xfe, 0x0e, 0xfe, 0x3f, 0x0f, 0x20, 0x01, 0x06,
  0x2a, 0xc8, 0x58, 0xfa, 0x39, 0xca, 0xaf, 0x2b, 0xfb, 0xe5, 0x3b, 0x3c,
  0xaf, 0x22, 0x0f, 0xd0, 0x3f, 0x0b, 0x32, 0x18, 0xbe, 0xce, 0xaa, 0x37,
  0x5c, 0xe7, 0x09, 0xe8, 0x64, 0x64, 0xf3, 0xfa, 0xfa, 0xbf, 0xec, 0xf4,
  0x05, 0x16, 0x22, 0xf8, 0x54, 0x20, 0x12, 0x9e, 0x60, 0x20, 0x24, 0x0e,
  0x1c, 0x00, 0xff, 0x11, 0xef, 0xff, 0xea, 0x10, 0x49, 0xd7, 0x36, 0xe5,
  0xf7, 0xda, 0xe4, 0x3b, 0x15, 0xe8, 0x4c, 0x17, 0x50, 0x47, 0xf1, 0x13,
  0xf2, 0xd6, 0xdb, 0x11, 0xe5, 0x1c, 0xe7, 0x02, 0x5c, 0x1d, 0xe3, 0xfa,
  0xc3, 0xe6, 0x3b, 0xc7, 0x50, 0xc9, 0xfd, 0x3b, 0x0d, 0xa2, 0x02, 0xfb,
  0x3e, 0xec, 0xf0, 0xcc, 0x13, 0x3b, 0xda, 0xd8, 0xd4, 0xeb, 0x1c, 0xa7,
  0x1a, 0xe9, 0xe3, 0xd1, 0x21, 0xb3, 0xbd, 0xf0, 0xcd, 0x0d, 0x14, 0xe1,
  0xab, 0xd8, 0x30, 0x04, 0x20, 0x02, 0x4a, 0x2a, 0xf3, 0xee, 0x3f, 0x48,
  0x1f, 0x47, 0x43, 0xd7, 0xe1, 0xa9, 0xf0, 0xeb, 0x1e, 0x07, 0x2a, 0xe3,
  0x2f, 0x14, 0xe0, 0xed, 0xbe, 0x17, 0x1e, 0x1f, 0xe1, 0xfd, 0x38, 0x20,
  0x06, 0x09, 0xeb, 0x34, 0x00, 0xc1, 0xe2, 0x44, 0x38, 0xb6, 0x17, 0xa8,
  0x0f, 0x0b, 0x2a, 0xfc, 0xe7, 0xf3, 0xfd, 0xe4, 0xe7, 0x4d, 0x35, 0x08,
  0xec, 0x22, 0xc9, 0x16, 0xe3, 0x2e, 0xea, 0x1d, 0x38, 0xd2, 0x4b, 0xd7,
  0x1c, 0x41, 0x0f, 0x17, 0x0b, 0xca, 0x59, 0xfa, 0xe6, 0x0e, 0xdd, 0x21,
  0xbb, 0x3e, 0x51, 0x14, 0x1a, 0x0c, 0x16, 0x51, 0xf4, 0x0d, 0x00, 0xde,
  0x03, 0xfd, 0x21, 0xc3, 0x4c, 0x08, 0xe4, 0x31, 0xa9, 0xfb, 0x0c, 0x17,
  0xb7, 0x5b, 0x0b, 0x28, 0xf7, 0xe9, 0xd4, 0xd4, 0xac, 0x56, 0xba, 0xf7,
  0x01, 0x2b, 0xca, 0x2a, 0xc6, 0x32, 0xd3, 0x1b, 0xc7, 0x29, 0xcf, 0xe1,
  0xe3, 0xf6, 0xd4, 0x36, 0xe0, 0x0c, 0xc7, 0xc0, 0x37, 0x22, 0xaf, 0xfc,
  0xe7, 0x07, 0xc5, 0xe6, 0xc7, 0x02, 0xe3, 0x36, 0x1b, 0x5e, 0xf0, 0xf7,
  0x23, 0xda, 0x30, 0xf0, 0xf3, 0xcc, 0xe0, 0xd7, 0xe4, 0xdd, 0x0f, 0x24,
  0x00, 0xd9, 0x03, 0xf8, 0xe5, 0x0a, 0xfe, 0xbd, 0xcc, 0x28, 0x01, 0x19,
  0x04, 0x24, 0xe1, 0xd8, 0xdc, 0xe5, 0x0b, 0x0e, 0x34, 0x15, 0x12, 0xcf,
  0xd9, 0x1d, 0xe8, 0xb2, 0x5a, 0x58, 0xf2, 0xf4, 0xf9, 0x0d, 0x05, 0x42,
  0xb5, 0xcf, 0x0c, 0xcd, 0xba, 0x28, 0xfd, 0x51, 0xd4, 0x34, 0x3e, 0x43,
  0xf3, 0x00, 0xeb, 0x03, 0xa5, 0x34, 0x11, 0x35, 0xf2, 0xf8, 0x59, 0x35,
  0xb3, 0xc6, 0x42, 0xfd, 0x2e, 0xa1, 0x1f, 0xd7, 0x11, 0xda, 0x3b, 0x11,
  0xdb, 0xd9, 0x1b, 0xde, 0x27, 0x2a, 0x06, 0xdd, 0x09, 0xf8, 0x30, 0x1e,
  0xeb, 0xed, 0x01, 0x62, 0x18, 0x4b, 0x11, 0xe7, 0x27, 0x00, 0xe2, 0xef,
  0x0b, 0x12, 0x1e, 0x51, 0x27, 0x0b, 0xf4, 0x46, 0x0c, 0xf6, 0xd6, 0x20,
  0xf9, 0x33, 0xbc, 0xe5, 0x28, 0xf8, 0xc7, 0xe7, 0x1c, 0xbf, 0xd9, 0x2b,
  0x31, 0xfb, 0x42, 0xdc, 0xea, 0xd9, 0x32, 0x99, 0x06, 0x1a, 0x3c, 0x1e,
  0xf9, 0x20, 0x2d, 0x30, 0x0e, 0xeb, 0x32, 0x26, 0xbd, 0xd3, 0x4d, 0xcd,
  0x20, 0xe0, 0xe6, 0x2e, 0x10, 0xd4, 0xed, 0x1b, 0xe5, 0x21, 0x10, 0x02,
  0x4e, 0x0a, 0xc6, 0x50, 0x4b, 0x9b, 0x09, 0x2d, 0x2f, 0xca, 0xaa, 0x9f,
  0xfd, 0xdb, 0xb4, 0xef, 0xc5, 0x09, 0x3b, 0x02, 0x37, 0xff, 0x23, 0xa1,
  0xf5, 0xed, 0x19, 0x47, 0x18, 0x98, 0x00, 0xc9, 0xf1, 0xa2, 0x0f, 0xc8,
  0xde, 0xaf, 0xf7, 0x27, 0xd8, 0x3e, 0x58, 0x32, 0xc3, 0xb9, 0xf0, 0x29,
  0xd6, 0x11, 0xb2, 0x00, 0x20, 0x56, 0x5d, 0x18, 0xe0, 0xcb, 0xd6, 0xed,
  0xf2, 0xab, 0xe6, 0x0b, 0x4e, 0x45, 0x14, 0x16, 0xd9, 0x1c, 0xed, 0xe2,
  0x00, 0xda, 0x3f, 0xe2, 0x33, 0x13, 0xc2, 0x2c, 0xb8, 0xe1, 0xf5, 0xfc,
  0xf0, 0xc2, 0x42, 0xda, 0x3c, 0x5d, 0x6d, 0x09, 0xc2, 0xe7, 0x49, 0x1e,
  0x32, 0xa4, 0x25, 0x1c, 0x28, 0x19, 0x3d, 0xe4, 0xf3, 0x45, 0x4e, 0x59,
  0x2d, 0xbe, 0x30, 0x42, 0xf8, 0x41, 0xbf, 0xd7, 0xc9, 0xd7, 0xd6, 0xc2,
  0x5f, 0x0c, 0x27, 0xeb, 0x35, 0x17, 0xf8, 0xe8, 0xb6, 0x2c, 0x0f, 0xdd,
  0xeb, 0x02, 0xd4, 0xf6, 0x57, 0xdd, 0x5e, 0xcb, 0xf9, 0x13, 0xbf, 0x05,
  0xd3, 0xd2, 0x2a, 0xdf, 0xcd, 0x1e, 0xe1, 0xbe, 0xbb, 0xe7, 0x29, 0x38,
  0x10, 0xc4, 0xea, 0x0c, 0x09, 0xfc, 0x0a, 0xdf, 0xd4, 0xbf, 0xc7, 0x15,
  0x21, 0xf4, 0xa0, 0x9c, 0x5a, 0x28, 0x19, 0x0c, 0xb3, 0x0d, 0x04, 0xd1,
  0x52, 0xff, 0xe4, 0x12, 0x28, 0x0d, 0x97, 0x32, 0x3e, 0x4e, 0xee, 0x05,
  0x39, 0xe5, 0x12, 0xcd, 0x0d, 0xc7, 0x16, 0x23, 0x3a, 0x59, 0x49, 0x05,
  0x13, 0x3b, 0xc1, 0xe2, 0xde, 0xd5, 0x0b, 0x0b, 0x33, 0x1f, 0xff, 0xb6,
  0x1f, 0x19, 0x2f, 0xc2, 0xdd, 0xd3, 0x00, 0x31, 0xdb, 0x18, 0xe3, 0xc4,
  0xef, 0xbf, 0x34, 0x22, 0x04, 0xc4, 0xe2, 0x06, 0xf6, 0xcd, 0x31, 0x2e,
  0xdf, 0xfa, 0x4e, 0xeb, 0x28, 0xc3, 0x50, 0xf7, 0x20, 0x12, 0x33, 0xc2,
  0xf5, 0xb4, 0xc4, 0x42, 0xe7, 0xfa, 0x02, 0x62, 0x0c, 0xd1, 0xe4, 0xee,
  0xe3, 0x07, 0xb7, 0x21, 0x0b, 0x13, 0x39, 0x1a, 0x04, 0xe0, 0xbe, 0xf3,
  0xc2, 0x30, 0x36, 0x31, 0xef, 0x01, 0x24, 0x25, 0x5c, 0x10, 0x03, 0xde,
  0x0c, 0xf2, 0x1f, 0x1e, 0xc4, 0xe6, 0x16, 0x29, 0x23, 0xa3, 0x09, 0xf6,
  0x19, 0x17, 0xdc, 0xd0, 0xf2, 0xf4, 0x68, 0xb8, 0xa2, 0x18, 0xf6, 0xc5,
  0x51, 0xe2, 0xd2, 0x2a, 0x0e, 0xef, 0xf8, 0xfa, 0xe5, 0xf1, 0x40, 0xec,
  0xdd, 0xf7, 0xd3, 0x30, 0xe8, 0x02, 0x49, 0xf7, 0x22, 0x12, 0x20, 0xdf,
  0x06, 0x30, 0x04, 0x43, 0xed, 0x11, 0x0e, 0xed, 0xf1, 0x0d, 0x11, 0xe5,
  0x1e, 0x05, 0x0c, 0x20, 0x52, 0x0b, 0xe9, 0x33, 0xdd, 0xa9, 0x3f, 0xfd,
  0xd5, 0xa0, 0x25, 0xfa, 0xd7, 0xb1, 0x04, 0x10, 0x12, 0x01, 0x14, 0xd0,
  0x29, 0x29, 0x15, 0xe9, 0xd3, 0xaa, 0x17, 0xda, 0x3f, 0x03, 0xf1, 0x0f,
  0xfa, 0x4b, 0xd9, 0x16, 0x1f, 0x1f, 0x10, 0x47, 0xc8, 0xc7, 0xf6, 0x36,
  0xfe, 0x39, 0x1d, 0x09, 0xcd, 0x09, 0x09, 0xce, 0xd8, 0x03, 0xce, 0x00,
  0x10, 0xfc, 0x3b, 0x05, 0xfa, 0x0e, 0xf1, 0x02, 0x4e, 0x3a, 0xd4, 0xd1,
  0x05, 0xd7, 0x09, 0xff, 0xf2, 0x23, 0xbe, 0x14, 0x4e, 0x4c, 0x08, 0xd8,
  0xb7, 0x0c, 0xdc, 0xb8, 0xe7, 0x47, 0xb2, 0xec, 0xaa, 0x35, 0xdf, 0xa4,
  0xcb, 0xd8, 0x1c, 0xfb, 0x1b, 0xbd, 0xd6, 0x46, 0x32, 0xc7, 0xce, 0xe8,
  0x27, 0xb8, 0xad, 0xa5, 0x25, 0x23, 0xec, 0xdc, 0x0c, 0x07, 0xca, 0xca,
  0xbb, 0xa4, 0x38, 0xf2, 0x4c, 0xca, 0x30, 0xba, 0xcf, 0xc7, 0x03, 0xf2,
  0xda, 0x0b, 0x16, 0xab, 0xc1, 0x2e, 0x35, 0x05, 0xbd, 0xfb, 0x1d, 0x1f,
  0x04, 0xdf, 0x16, 0x0d, 0x9f, 0x21, 0xe7, 0x0d, 0xef, 0x1e, 0xd7, 0x0f,
  0x85, 0x00, 0x1a, 0xa7, 0x0c, 0xce, 0xe4, 0x28, 0xf0, 0xfb, 0xc8, 0x47,
  0x0a, 0xff, 0xbe, 0x35, 0x27, 0x07, 0xc7, 0xbc, 0xd6, 0xa9, 0x4e, 0x30,
  0xf0, 0x1f, 0xd2, 0xd3, 0x59, 0x1a, 0xc2, 0x59, 0xd8, 0xb6, 0xec, 0x49,
  0x62, 0xc2, 0xfb, 0xfa, 0xa4, 0x10, 0xea, 0xd8, 0xc3, 0xe5, 0xcd, 0x4e,
  0x2a, 0xb6, 0xfb, 0x47, 0xbe, 0x5d, 0x0b, 0xbd, 0xdc, 0xe0, 0x36, 0x38,
  0xe7, 0x30, 0x00, 0xff, 0xf7, 0x07, 0x23, 0x00, 0xcb, 0x28, 0xcb, 0xc1,
  0x15, 0x1f, 0x16, 0x40, 0xd2, 0xe2, 0x30, 0xb2, 0x23, 0xd6, 0x0d, 0xfb,
  0x24, 0xde, 0xf2, 0x05, 0x1a, 0x55, 0x01, 0xf5, 0xed, 0x3f, 0x4a, 0x09,
  0x04, 0xc9, 0xdd, 0xe2, 0x16, 0x2d, 0xda, 0x62, 0xda, 0x0e, 0xc0, 0xe2,
  0x37, 0xd0, 0x1b, 0x23, 0xd9, 0x0a, 0xd5, 0xe6, 0xae, 0xf7, 0xee, 0x22,
  0x0b, 0x2b, 0x2f, 0x2d, 0x08, 0x26, 0xe9, 0xff, 0x35, 0x1b, 0xc0, 0xf8,
  0x0b, 0x3c, 0xb6, 0x18, 0x04, 0x16, 0x63, 0x06, 0x34, 0xf7, 0x25, 0x0e,
  0x22, 0x17, 0xf0, 0xd0, 0x44, 0x05, 0x0f, 0x25, 0x25, 0x2a, 0xcc, 0xac,
  0xed, 0x12, 0x3c, 0x40, 0x15, 0x12, 0x04, 0x05, 0x00, 0xdd, 0x5f, 0xcf,
  0x38, 0xe4, 0xec, 0x4f, 0x3f, 0xf6, 0x31, 0x23, 0x0f, 0x12, 0xe8, 0x5d,
  0x56, 0xfb, 0xad, 0x0d, 0x48, 0xf5, 0x70, 0x15, 0x34, 0xc6, 0x50, 0x27,
  0xf6, 0xfb, 0xc4, 0xe0, 0xf8, 0x02, 0xf9, 0x2c, 0x21, 0xa8, 0x4b, 0xee,
  0x47, 0x07, 0x26, 0xc6, 0xf2, 0xe4, 0x0a, 0xf6, 0x16, 0xd5, 0xf8, 0x2f,
  0xe0, 0x3c, 0xca, 0x4b, 0x43, 0xf0, 0x26, 0x1f, 0xef, 0x18, 0xf6, 0x1b,
  0xfe, 0x17, 0xf3, 0x1e, 0x11, 0x0f, 0x09, 0x3d, 0xe7, 0xd9, 0xca, 0x12,
  0xd2, 0x06, 0xc3, 0x1b, 0x27, 0x0a, 0x22, 0xe2, 0x2a, 0x0e, 0x16, 0x0a,
  0x1a, 0xcb, 0xcc, 0x04, 0xd0, 0xfa, 0xff, 0xff, 0xd4, 0xfa, 0xff, 0xff,
  0x0a, 0xfb, 0xff, 0xff, 0x04, 0x00, 0x00, 0x00, 0xee, 0x02, 0x00, 0x00,
  0x16, 0x66, 0x69, 0x14, 0x00, 0xf4, 0x25, 0x1a, 0x1c, 0x19, 0x22, 0xd9,
  0xed, 0x1f, 0xf8, 0x38, 0xd8, 0xdf, 0xd8, 0xe4, 0x12, 0xea, 0x19, 0xd0,
  0x08, 0x08, 0xe8, 0x05, 0x45, 0x23, 0x03, 0xf7, 0x2d, 0xde, 0x3c, 0xe6,
  0xfb, 0x04, 0x0c, 0xfb, 0x11, 0xe7, 0x0d, 0xef, 0x76, 0x20, 0x1d, 0xc7,
  0x13, 0x2a, 0x3c, 0x0a, 0x2c, 0xfe, 0xa9, 0x34, 0x09, 0xc3, 0x21, 0xd8,
  0xe9, 0x1b, 0x51, 0x58, 0xbf, 0xc6, 0xf2, 0xda, 0xed, 0x1b, 0xc7, 0x0d,
  0x3e, 0xee, 0xc8, 0xb6, 0x4a, 0xe6, 0xb1, 0xe6, 0x54, 0xc8, 0xff, 0x07,
  0xb2, 0x11, 0x34, 0xff, 0xf5, 0x41, 0x0a, 0x16, 0x0b, 0xbc, 0xde, 0xf4,
  0x52, 0xfc, 0xa6, 0xfb, 0x0f, 0x04, 0x05, 0xe3, 0x20, 0xf4, 0x26, 0xc7,
  0x29, 0x05, 0x24, 0x3e, 0xf8, 0xf9, 0x1d, 0xfa, 0x0a, 0xd8, 0xcf, 0xda,
  0x12, 0xf4, 0x3f, 0x23, 0x08, 0x5c, 0x12, 0xd0, 0xde, 0xf9, 0xea, 0xd4,
  0x05, 0xa6, 0xe4, 0xe4, 0x17, 0x06, 0x14, 0xe3, 0xcd, 0xc1, 0x12, 0xd1,
  0xc5, 0xfa, 0x42, 0xc5, 0x1b, 0x0d, 0x3f, 0x21, 0x5e, 0xcd, 0x3c, 0x01,
  0x27, 0x78, 0x11, 0x0a, 0x3a, 0x5b, 0xb7, 0x14, 0xbc, 0x5e, 0xc9, 0x00,
  0xfd, 0x14, 0x5b, 0xe5, 0x3a, 0x45, 0x2f, 0xb3, 0xe4, 0x21, 0x19, 0xfe,
  0xf8, 0xeb, 0x1b, 0xd5, 0x10, 0xfd, 0x2b, 0xc0, 0xcd, 0xfd, 0xee, 0x44,
  0xf0, 0x1f, 0x3d, 0xe6, 0x3a, 0xf2, 0x10, 0x3d, 0xfc, 0xe6, 0xc3, 0xd3,
  0xe7, 0x30, 0x3a, 0x30, 0x42, 0x15, 0x30, 0x23, 0x1c, 0x64, 0x1c, 0xf5,
  0x0a, 0x0c, 0x44, 0xf7, 0xff, 0x10, 0x24, 0x03, 0xe6, 0x10, 0x7f, 0x5d,
  0x19, 0xf6, 0xc2, 0x36, 0xd0, 0xfc, 0x31, 0x1a, 0x18, 0x00, 0x41, 0xcf,
  0xd1, 0x18, 0x0a, 0x07, 0xf3, 0x2d, 0xbe, 0x27, 0xd0, 0xda, 0x3e, 0x29,
  0x1d, 0x0c, 0x5d, 0x42, 0xcc, 0x04, 0x2a, 0x1b, 0xf5, 0xc5, 0xec, 0x00,
  0xbb, 0x1e, 0x2a, 0xe5, 0xf5, 0xd0, 0xc7, 0x0c, 0x1a, 0xdd, 0x0b, 0x19,
  0xe0, 0x17, 0xe5, 0xee, 0x1d, 0xfa, 0x26, 0x37, 0x07, 0xf4, 0xc9, 0x1c,
  0xea, 0xf0, 0xda, 0x02, 0x00, 0x01, 0x06, 0xfa, 0x30, 0x05, 0x37, 0x17,
  0xef, 0x18, 0x64, 0x1e, 0x13, 0x1c, 0x2d, 0xe1, 0x0a, 0xec, 0x10, 0x37,
  0x0a, 0x0f, 0xca, 0x06, 0x12, 0xe9, 0x03, 0x42, 0x4f, 0x36, 0xec, 0xdd,
  0x61, 0x29, 0xe7, 0xcc, 0xe7, 0x2f, 0x1a, 0xff, 0x1e, 0x20, 0xd0, 0x2c,
  0xa2, 0xcf, 0x2c, 0x14, 0xcf, 0x3f, 0x05, 0x5e, 0x15, 0xc6, 0xc9, 0x1b,
  0x11, 0xd7, 0x03, 0x39, 0x24, 0xbd, 0xb9, 0xd3, 0xf1, 0x21, 0xe8, 0x30,
  0xf0, 0xcc, 0xf9, 0x13, 0xe3, 0xda, 0x24, 0xf1, 0xfe, 0x0b, 0x1e, 0xed,
  0x2c, 0x0b, 0x3e, 0x29, 0x18, 0x73, 0xb4, 0x07, 0xe5, 0x07, 0x47, 0x07,
  0xee, 0x26, 0xb6, 0xd7, 0x14, 0xd0, 0xca, 0xba, 0x06, 0xf6, 0x1e, 0xee,
  0xd9, 0x20, 0x14, 0x2f, 0xc3, 0xe6, 0x3b, 0x28, 0xab, 0x11, 0xdc, 0x34,
  0x1e, 0x1b, 0xff, 0x1c, 0x4c, 0x51, 0x1c, 0xad, 0xdb, 0x0d, 0xd9, 0xf5,
  0xf8, 0xfe, 0xf7, 0xf8, 0x51, 0x46, 0x33, 0x43, 0xb2, 0xb2, 0xdf, 0xf0,
  0xfc, 0xca, 0xa0, 0x19, 0xfa, 0xf3, 0x48, 0x0b, 0xbc, 0xd9, 0x39, 0x0c,
  0xc1, 0xef, 0x37, 0x38, 0xfb, 0x00, 0x24, 0xf6, 0xaa, 0x2e, 0xc3, 0xf8,
  0xf7, 0xd3, 0x30, 0x49, 0x05, 0x13, 0xf3, 0x78, 0xd5, 0xb5, 0x65, 0xba,
  0xd3, 0x42, 0x4f, 0xce, 0x39, 0x4a, 0x53, 0xd6, 0x33, 0x49, 0xff, 0x38,
  0x0e, 0xc5, 0xfc, 0x24, 0xb1, 0x05, 0x23, 0xf1, 0x53, 0xc7, 0x2b, 0x1e,
  0x32, 0xa3, 0xee, 0x2c, 0xb4, 0x0f, 0x00, 0x14, 0x17, 0xc1, 0x0b, 0xec,
  0x1e, 0xbc, 0x9d, 0xc4, 0xd1, 0x33, 0x60, 0xe4, 0x06, 0x10, 0x23, 0xeb,
  0xf8, 0xe3, 0xd3, 0x26, 0xb5, 0x35, 0xca, 0xff, 0x30, 0x19, 0xe1, 0x17,
  0x0e, 0x06, 0x42, 0xbe, 0x03, 0x13, 0x19, 0x51, 0x15, 0xc8, 0xfb, 0xcc,
  0x27, 0xf5, 0x22, 0xc7, 0x29, 0xf1, 0x59, 0xcb, 0x29, 0xfb, 0xfd, 0xab,
  0x1f, 0x09, 0xd3, 0xd9, 0xfb, 0xd8, 0x34, 0x43, 0xc1, 0x08, 0x34, 0x2f,
  0x2e, 0x06, 0xb0, 0x55, 0xd6, 0x21, 0xba, 0x2b, 0xa8, 0x11, 0x25, 0xfd,
  0x5d, 0x1c, 0xe4, 0xa6, 0xdf, 0xf1, 0x52, 0x03, 0xed, 0xcd, 0xa4, 0x0a,
  0x3f, 0x23, 0xd5, 0x2e, 0xd8, 0xd0, 0xdf, 0x0d, 0xfb, 0x5a, 0x03, 0x30,
  0x45, 0xf0, 0xfe, 0xe9, 0x2a, 0xaf, 0x08, 0x4e, 0xd1, 0x57, 0x18, 0x2e,
  0xfd, 0x00, 0xff, 0x4c, 0x28, 0xbf, 0x2c, 0xf8, 0x1f, 0x13, 0x13, 0xe0,
  0x42, 0xf5, 0xca, 0x0c, 0x2d, 0xf9, 0x16, 0xeb, 0x1e, 0x67, 0x3d, 0xf8,
  0x07, 0xad, 0x2d, 0xf4, 0x43, 0x28, 0xca, 0x15, 0x43, 0xce, 0x51, 0xd5,
  0x23, 0x4e, 0x4a, 0x69, 0x2c, 0x21, 0xee, 0x49, 0xca, 0xdf, 0x18, 0xff,
  0x39, 0x3a, 0xf1, 0xeb, 0xdd, 0xf4, 0x21, 0x13, 0xf2, 0xc1, 0x28, 0xc4,
  0x50, 0xcd, 0x30, 0xf9, 0xf7, 0xf6, 0xf3, 0xc8, 0xfd, 0x28, 0xf0, 0x62,
  0x17, 0x34, 0xe2, 0xec, 0xc3, 0xe8, 0x36, 0x21, 0xd4, 0x4b, 0x25, 0x1b,
  0xe5, 0xfc, 0x32, 0x40, 0x22, 0x0d, 0xfc, 0xc2, 0x25, 0xf5, 0xea, 0x18,
  0xf9, 0xe4, 0xbd, 0xc3, 0xd2, 0xf2, 0x4b, 0xb7, 0xed, 0xdd, 0xe1, 0x12,
  0xd0, 0xbb, 0x16, 0x36, 0xe6, 0xeb, 0xde, 0xd1, 0xc8, 0xb7, 0xf3, 0x32,
  0xfc, 0xea, 0x15, 0xa7, 0xfd, 0x13, 0xd6, 0xb3, 0x06, 0xe6, 0xe6, 0xeb,
  0x03, 0xde, 0xc4, 0xcf, 0xc4, 0x04, 0x00, 0x00, 0xd4, 0xfd, 0xff, 0xff,
  0x0a, 0xfe, 0xff, 0xff, 0x04, 0x00, 0x00, 0x00, 0xc8, 0x00, 0x00, 0x00,
  0x13, 0x19, 0x00, 0x00, 0x25, 0x19, 0x00, 0x00, 0xaa, 0x1e, 0x00, 0x00,
  0xb5, 0xfa, 0xff, 0xff, 0xb5, 0x0c, 0x00, 0x00, 0x5b, 0x00, 0x00, 0x00,
  0x2f, 0x0c, 0x00, 0x00, 0xe1, 0x14, 0x00, 0x00, 0x33, 0x11, 0x00, 0x00,
  0x2b, 0x13, 0x00, 0x00, 0x2c, 0x10, 0x00, 0x00, 0x8b, 0x08, 0x00, 0x00,
  0x0c, 0x0f, 0x00, 0x00, 0x04, 0x1d, 0x00, 0x00, 0xe8, 0xfa, 0xff, 0xff,
  0x32, 0x12, 0x00, 0x00, 0x45, 0xfb, 0xff, 0xff, 0x6a, 0xf5, 0xff, 0xff,
  0x27, 0xfd, 0xff, 0xff, 0xa2, 0xfd, 0xff, 0xff, 0x56, 0x13, 0x00, 0x00,
  0x14, 0xf7, 0xff, 0xff, 0x82, 0x13, 0x00, 0x00, 0x3e, 0x05, 0x00, 0x00,
  0x52, 0x1a, 0x00, 0x00, 0xf9, 0xf7, 0xff, 0xff, 0x1f, 0x1f, 0x00, 0x00,
  0x01, 0x1c, 0x00, 0x00, 0xa2, 0x0b, 0x00, 0x00, 0xd4, 0xfd, 0xff, 0xff,
  0x6c, 0x00, 0x00, 0x00, 0xdd, 0xfd, 0xff, 0xff, 0xfc, 0x0a, 0x00, 0x00,
  0x04, 0x0a, 0x00, 0x00, 0xd3, 0x02, 0x00, 0x00, 0x5d, 0x02, 0x00, 0x00,
  0xd7, 0xfa, 0xff, 0xff, 0x78, 0xf0, 0xff, 0xff, 0xc8, 0x12, 0x00, 0x00,
  0x56, 0xfc, 0xff, 0xff, 0x7b, 0x04, 0x00, 0x00, 0x87, 0x0c, 0x00, 0x00,
  0xce, 0x02, 0x00, 0x00, 0x41, 0x11, 0x00, 0x00, 0xe1, 0x20, 0x00, 0x00,
  0x94, 0xf4, 0xff, 0xff, 0x6b, 0x0b, 0x00, 0x00, 0xb0, 0x0a, 0x00, 0x00,
  0x2f, 0x13, 0x00, 0x00, 0xe6, 0x10, 0x00, 0x00, 0xde, 0xfe, 0xff, 0xff,
  0x04, 0x00, 0x00, 0x00, 0x3c, 0x00, 0x00, 0x00, 0x7b, 0x0f, 0x00, 0x00,
  0x53, 0x06, 0x00, 0x00, 0xfc, 0xfc, 0xff, 0xff, 0xf0, 0x18, 0x00, 0x00,
  0x8d, 0x08, 0x00, 0x00, 0xa3, 0xff, 0xff, 0xff, 0x31, 0x10, 0x00, 0x00,
  0x67, 0x02, 0x00, 0x00, 0xbc, 0x08, 0x00, 0x00, 0x91, 0x07, 0x00, 0x00,
  0x0b, 0xfd, 0xff, 0xff, 0x0d, 0x0e, 0x00, 0x00, 0x94, 0x14, 0x00, 0x00,
  0x7a, 0x11, 0x00, 0x00, 0x00, 0x00, 0x00, 0x00, 0x26, 0xff, 0xff, 0xff,
  0x04, 0x00, 0x00, 0x00, 0x1e, 0x00, 0x00, 0x00, 0xa7, 0x22, 0xd7, 0xc1,
  0x44, 0xf4, 0xfa, 0xc2, 0x58, 0x36, 0xab, 0x42, 0xda, 0xc3, 0x91, 0x20,
  0xf7, 0xd7, 0x6e, 0xd4, 0x0c, 0x67, 0x9e, 0xef, 0xcb, 0xcf, 0xfa, 0x7f,
  0x1e, 0xa5, 0x00, 0x00, 0x52, 0xff, 0xff, 0xff, 0x04, 0x00, 0x00, 0x00,
  0x08, 0x00, 0x00, 0x00, 0xf2, 0xfe, 0xff, 0xff, 0x0e, 0x01, 0x00, 0x00,
  0x34, 0xff, 0xff, 0xff, 0x0f, 0x00, 0x00, 0x00, 0x54, 0x4f, 0x43, 0x4f,
  0x20, 0x43, 0x6f, 0x6e, 0x76, 0x65, 0x72, 0x74, 0x65, 0x64, 0x2e, 0x00,
  0x01, 0x00, 0x00, 0x00, 0x04, 0x00, 0x00, 0x00, 0x00, 0xf9, 0xff, 0xff,
  0x94, 0x01, 0x00, 0x00, 0x88, 0x01, 0x00, 0x00, 0x7c, 0x01, 0x00, 0x00,
  0x04, 0x00, 0x00, 0x00, 0x06, 0x00, 0x00, 0x00, 0x50, 0x01, 0x00, 0x00,
  0x04, 0x01, 0x00, 0x00, 0xbc, 0x00, 0x00, 0x00, 0x74, 0x00, 0x00, 0x00,
  0x38, 0x00, 0x00, 0x00, 0x04, 0x00, 0x00, 0x00, 0xd2, 0xfe, 0xff, 0xff,
  0x03, 0x00, 0x00, 0x00, 0x10, 0x00, 0x00, 0x00, 0x04, 0x00, 0x00, 0x00,
  0x01, 0x00, 0x00, 0x00, 0x0c, 0x00, 0x00, 0x00, 0x01, 0x00, 0x00, 0x00,
  0x00, 0x00, 0x00, 0x00, 0x00, 0x00, 0x0e, 0x00, 0x1a, 0x00, 0x08, 0x00,
  0x0c, 0x00, 0x10, 0x00, 0x07, 0x00, 0x14, 0x00, 0x0e, 0x00, 0x00, 0x00,
  0x00, 0x00, 0x00, 0x09, 0x01, 0x00, 0x00, 0x00, 0x24, 0x00, 0x00, 0x00,
  0x18, 0x00, 0x00, 0x00, 0x0c, 0x00, 0x00, 0x00, 0x00, 0x00, 0x06, 0x00,
  0x08, 0x00, 0x04, 0x00, 0x06, 0x00, 0x00, 0x00, 0x00, 0x00, 0x80, 0x3f,
  0x01, 0x00, 0x00, 0x00, 0x00, 0x00, 0x00, 0x00, 0x01, 0x00, 0x00, 0x00,
  0x08, 0x00, 0x00, 0x00, 0xca, 0xff, 0xff, 0xff, 0x00, 0x00, 0x00, 0x08,
  0x1c, 0x00, 0x00, 0x00, 0x10, 0x00, 0x00, 0x00, 0x08, 0x00, 0x00, 0x00,
  0x04, 0x00, 0x04, 0x00, 0x04, 0x00, 0x00, 0x00, 0x01, 0x00, 0x00, 0x00,
  0x08, 0x00, 0x00, 0x00, 0x03, 0x00, 0x00, 0x00, 0x07, 0x00, 0x00, 0x00,
  0x09, 0x00, 0x00, 0x00, 0x0a, 0x00, 0x00, 0x00, 0x00, 0x00, 0x0e, 0x00,
  0x14, 0x00, 0x00, 0x00, 0x08, 0x00, 0x0c, 0x00, 0x07, 0x00, 0x10, 0x00,
  0x0e, 0x00, 0x00, 0x00, 0x00, 0x00, 0x00, 0x08, 0x1c, 0x00, 0x00, 0x00,
  0x10, 0x00, 0x00, 0x00, 0x04, 0x00, 0x00, 0x00, 0xba, 0xff, 0xff, 0xff,
  0x00, 0x00, 0x00, 0x01, 0x01, 0x00, 0x00, 0x00, 0x07, 0x00, 0x00, 0x00,
  0x03, 0x00, 0x00, 0x00, 0x04, 0x00, 0x00, 0x00, 0x05, 0x00, 0x00, 0x00,
  0x06, 0x00, 0x00, 0x00, 0x00, 0x00, 0x0e, 0x00, 0x16, 0x00, 0x00, 0x00,
  0x08, 0x00, 0x0c, 0x00, 0x07, 0x00, 0x10, 0x00, 0x0e, 0x00, 0x00, 0x00,
  0x00, 0x00, 0x00, 0x08, 0x24, 0x00, 0x00, 0x00, 0x18, 0x00, 0x00, 0x00,
  0x0c, 0x00, 0x00, 0x00, 0x00, 0x00, 0x06, 0x00, 0x08, 0x00, 0x07, 0x00,
  0x06, 0x00, 0x00, 0x00, 0x00, 0x00, 0x00, 0x01, 0x01, 0x00, 0x00, 0x00,
  0x04, 0x00, 0x00, 0x00, 0x03, 0x00, 0x00, 0x00, 0x01, 0x00, 0x00, 0x00,
  0x02, 0x00, 0x00, 0x00, 0x03, 0x00, 0x00, 0x00, 0x00, 0x00, 0x0a, 0x00,
  0x10, 0x00, 0x04, 0x00, 0x08, 0x00, 0x0c, 0x00, 0x0a, 0x00, 0x00, 0x00,
  0x02, 0x00, 0x00, 0x00, 0x10, 0x00, 0x00, 0x00, 0x04, 0x00, 0x00, 0x00,
  0x01, 0x00, 0x00, 0x00, 0x01, 0x00, 0x00, 0x00, 0x01, 0x00, 0x00, 0x00,
  0x0b, 0x00, 0x00, 0x00, 0x01, 0x00, 0x00, 0x00, 0x0c, 0x00, 0x00, 0x00,
  0x01, 0x00, 0x00, 0x00, 0x0b, 0x00, 0x00, 0x00, 0x0d, 0x00, 0x00, 0x00,
  0xe4, 0x05, 0x00, 0x00, 0x48, 0x05, 0x00, 0x00, 0xa8, 0x04, 0x00, 0x00,
  0x34, 0x04, 0x00, 0x00, 0xb0, 0x03, 0x00, 0x00, 0x0c, 0x03, 0x00, 0x00,
  0x98, 0x02, 0x00, 0x00, 0x14, 0x02, 0x00, 0x00, 0x88, 0x01, 0x00, 0x00,
  0xe4, 0x00, 0x00, 0x00, 0x70, 0x00, 0x00, 0x00, 0x3c, 0x00, 0x00, 0x00,
  0x04, 0x00, 0x00, 0x00, 0xd8, 0xff, 0xff, 0xff, 0x18, 0x00, 0x00, 0x00,
  0x04, 0x00, 0x00, 0x00, 0x08, 0x00, 0x00, 0x00, 0x49, 0x64, 0x65, 0x6e,
  0x74, 0x69, 0x74, 0x79, 0x00, 0x00, 0x00, 0x00, 0x02, 0x00, 0x00, 0x00,
  0x01, 0x00, 0x00, 0x00, 0x02, 0x00, 0x00, 0x00, 0x0c, 0x00, 0x0c, 0x00,
  0x04, 0x00, 0x00, 0x00, 0x00, 0x00, 0x08, 0x00, 0x0c, 0x00, 0x00, 0x00,
  0x20, 0x00, 0x00, 0x00, 0x04, 0x00, 0x00, 0x00, 0x12, 0x00, 0x00, 0x00,
  0x64, 0x65, 0x6e, 0x73, 0x65, 0x5f, 0x44, 0x65, 0x6e, 0x73, 0x65, 0x31,
  0x5f, 0x69, 0x6e, 0x70, 0x75, 0x74, 0x00, 0x00, 0x02, 0x00, 0x00, 0x00,
  0x01, 0x00, 0x00, 0x00, 0x78, 0x00, 0x00, 0x00, 0xc2, 0xfa, 0xff, 0xff,
  0x00, 0x00, 0x00, 0x02, 0x60, 0x00, 0x00, 0x00, 0x01, 0x00, 0x00, 0x00,
  0x2c, 0x00, 0x00, 0x00, 0x04, 0x00, 0x00, 0x00, 0xb4, 0xfa, 0xff, 0xff,
  0x18, 0x00, 0x00, 0x00, 0x04, 0x00, 0x00, 0x00, 0x01, 0x00, 0x00, 0x00,
  0x00, 0x00, 0x00, 0x00, 0x00, 0x00, 0x00, 0x00, 0x00, 0x00, 0x00, 0x00,
  0x01, 0x00, 0x00, 0x00, 0x2d, 0x3e, 0x9f, 0x38, 0x25, 0x00, 0x00, 0x00,
  0x73, 0x65, 0x71, 0x75, 0x65, 0x6e, 0x74, 0x69, 0x61, 0x6c, 0x5f, 0x31,
  0x2f, 0x64, 0x65, 0x6e, 0x73, 0x65, 0x5f, 0x44, 0x65, 0x6e, 0x73, 0x65,
  0x33, 0x2f, 0x4d, 0x61, 0x74, 0x4d, 0x75, 0x6c, 0x5f, 0x62, 0x69, 0x61,
  0x73, 0x00, 0x00, 0x00, 0x01, 0x00, 0x00, 0x00, 0x02, 0x00, 0x00, 0x00,
  0x32, 0xfb, 0xff, 0xff, 0x00, 0x00, 0x00, 0x09, 0x8c, 0x00, 0x00, 0x00,
  0x02, 0x00, 0x00, 0x00, 0x44, 0x00, 0x00, 0x00, 0x04, 0x00, 0x00, 0x00,
  0xbc, 0xfb, 0xff, 0xff, 0x30, 0x00, 0x00, 0x00, 0x24, 0x00, 0x00, 0x00,
  0x18, 0x00, 0x00, 0x00, 0x04, 0x00, 0x00, 0x00, 0x01, 0x00, 0x00, 0x00,
  0x00, 0x00, 0x00, 0x00, 0x00, 0x00, 0x00, 0x00, 0x00, 0x00, 0x00, 0x00,
  0x01, 0x00, 0x00, 0x00, 0xce, 0x7f, 0xc6, 0x3b, 0x01, 0x00, 0x00, 0x00,
  0xce, 0xf2, 0x44, 0x3f, 0x01, 0x00, 0x00, 0x00, 0xce, 0xc1, 0x2c, 0xbf,
  0x39, 0x00, 0x00, 0x00, 0x73, 0x65, 0x71, 0x75, 0x65, 0x6e, 0x74, 0x69,
  0x61, 0x6c, 0x5f, 0x31, 0x2f, 0x64, 0x65, 0x6e, 0x73, 0x65, 0x5f, 0x44,
  0x65, 0x6e, 0x73, 0x65, 0x33, 0x2f, 0x4d, 0x61, 0x74, 0x4d, 0x75, 0x6c,
  0x2f, 0x52, 0x65, 0x61, 0x64, 0x56, 0x61, 0x72, 0x69, 0x61, 0x62, 0x6c,
  0x65, 0x4f, 0x70, 0x2f, 0x74, 0x72, 0x61, 0x6e, 0x73, 0x70, 0x6f, 0x73,
  0x65, 0x00, 0x00, 0x00, 0x02, 0x00, 0x00, 0x00, 0x02, 0x00, 0x00, 0x00,
  0x0f, 0x00, 0x00, 0x00, 0xd2, 0xfb, 0xff, 0xff, 0x00, 0x00, 0x00, 0x09,
  0x74, 0x00, 0x00, 0x00, 0x0b, 0x00, 0x00, 0x00, 0x44, 0x00, 0x00, 0x00,
  0x04, 0x00, 0x00, 0x00, 0x5c, 0xfc, 0xff, 0xff, 0x30, 0x00, 0x00, 0x00,
  0x24, 0x00, 0x00, 0x00, 0x18, 0x00, 0x00, 0x00, 0x04, 0x00, 0x00, 0x00,
  0x01, 0x00, 0x00, 0x00, 0xe6, 0xff, 0xff, 0xff, 0xff, 0xff, 0xff, 0xff,
  0x00, 0x00, 0x00, 0x00, 0x01, 0x00, 0x00, 0x00, 0xe3, 0x48, 0xde, 0x3c,
  0x01, 0x00, 0x00, 0x00, 0xfe, 0x3f, 0x85, 0x40, 0x01, 0x00, 0x00, 0x00,
  0x39, 0x55, 0x30, 0xc0, 0x21, 0x00, 0x00, 0x00, 0x73, 0x65, 0x71, 0x75,
  0x65, 0x6e, 0x74, 0x69, 0x61, 0x6c, 0x5f, 0x31, 0x2f, 0x64, 0x65, 0x6e,
  0x73, 0x65, 0x5f, 0x44, 0x65, 0x6e, 0x73, 0x65, 0x33, 0x2f, 0x42, 0x69,
  0x61, 0x73, 0x41, 0x64, 0x64, 0x00, 0x00, 0x00, 0x02, 0x00, 0x00, 0x00,
  0x01, 0x00, 0x00, 0x00, 0x02, 0x00, 0x00, 0x00, 0x5a, 0xfc, 0xff, 0xff,
  0x00, 0x00, 0x00, 0x09, 0x6c, 0x00, 0x00, 0x00, 0x08, 0x00, 0x00, 0x00,
  0x40, 0x00, 0x00, 0x00, 0x04, 0x00, 0x00, 0x00, 0xe4, 0xfc, 0xff, 0xff,
  0x2c, 0x00, 0x00, 0x00, 0x20, 0x00, 0x00, 0x00, 0x14, 0x00, 0x00, 0x00,
  0x04, 0x00, 0x00, 0x00, 0x01, 0x00, 0x00, 0x00, 0x80, 0xff, 0xff, 0xff,
  0xff, 0xff, 0xff, 0xff, 0x01, 0x00, 0x00, 0x00, 0x38, 0x5f, 0x4d, 0x3c,
  0x01, 0x00, 0x00, 0x00, 0xd9, 0x91, 0x4c, 0x40, 0x01, 0x00, 0x00, 0x00,
  0x00, 0x00, 0x00, 0x00, 0x1e, 0x00, 0x00, 0x00, 0x73, 0x65, 0x71, 0x75,
  0x65, 0x6e, 0x74, 0x69, 0x61, 0x6c, 0x5f, 0x31, 0x2f, 0x64, 0x65, 0x6e,
  0x73, 0x65, 0x5f, 0x44, 0x65, 0x6e, 0x73, 0x65, 0x32, 0x2f, 0x52, 0x65,
  0x6c, 0x75, 0x00, 0x00, 0x02, 0x00, 0x00, 0x00, 0x01, 0x00, 0x00, 0x00,
  0x0f, 0x00, 0x00, 0x00, 0xda, 0xfc, 0xff, 0xff, 0x00, 0x00, 0x00, 0x02,
  0x60, 0x00, 0x00, 0x00, 0x03, 0x00, 0x00, 0x00, 0x2c, 0x00, 0x00, 0x00,
  0x04, 0x00, 0x00, 0x00, 0xcc, 0xfc, 0xff, 0xff, 0x18, 0x00, 0x00, 0x00,
  0x04, 0x00, 0x00, 0x00, 0x01, 0x00, 0x00, 0x00, 0x00, 0x00, 0x00, 0x00,
  0x00, 0x00, 0x00, 0x00, 0x00, 0x00, 0x00, 0x00, 0x01, 0x00, 0x00, 0x00,
  0xd1, 0x25, 0xd5, 0x37, 0x25, 0x00, 0x00, 0x00, 0x73, 0x65, 0x71, 0x75,
  0x65, 0x6e, 0x74, 0x69, 0x61, 0x6c, 0x5f, 0x31, 0x2f, 0x64, 0x65, 0x6e,
  0x73, 0x65, 0x5f, 0x44, 0x65, 0x6e, 0x73, 0x65, 0x32, 0x2f, 0x4d, 0x61,
  0x74, 0x4d, 0x75, 0x6c, 0x5f, 0x62, 0x69, 0x61, 0x73, 0x00, 0x00, 0x00,
  0x01, 0x00, 0x00, 0x00, 0x0f, 0x00, 0x00, 0x00, 0x4a, 0xfd, 0xff, 0xff,
  0x00, 0x00, 0x00, 0x09, 0x8c, 0x00, 0x00, 0x00, 0x06, 0x00, 0x00, 0x00,
  0x44, 0x00, 0x00, 0x00, 0x04, 0x00, 0x00, 0x00, 0xd4, 0xfd, 0xff, 0xff,
  0x30, 0x00, 0x00, 0x00, 0x24, 0x00, 0x00, 0x00, 0x18, 0x00, 0x00, 0x00,
  0x04, 0x00, 0x00, 0x00, 0x01, 0x00, 0x00, 0x00, 0x00, 0x00, 0x00, 0x00,
  0x00, 0x00, 0x00, 0x00, 0x00, 0x00, 0x00, 0x00, 0x01, 0x00, 0x00, 0x00,
  0xe6, 0x06, 0x6a, 0x3b, 0x01, 0x00, 0x00, 0x00, 0xd8, 0x32, 0xe8, 0x3e,
  0x01, 0x00, 0x00, 0x00, 0x68, 0xbe, 0xb4, 0xbe, 0x39, 0x00, 0x00, 0x00,
  0x73, 0x65, 0x71, 0x75, 0x65, 0x6e, 0x74, 0x69, 0x61, 0x6c, 0x5f, 0x31,
  0x2f, 0x64, 0x65, 0x6e, 0x73, 0x65, 0x5f, 0x44, 0x65, 0x6e, 0x73, 0x65,
  0x32, 0x2f, 0x4d, 0x61, 0x74, 0x4d, 0x75, 0x6c, 0x2f, 0x52, 0x65, 0x61,
  0x64, 0x56, 0x61, 0x72, 0x69, 0x61, 0x62, 0x6c, 0x65, 0x4f, 0x70, 0x2f,
  0x74, 0x72, 0x61, 0x6e, 0x73, 0x70, 0x6f, 0x73, 0x65, 0x00, 0x00, 0x00,
  0x02, 0x00, 0x00, 0x00, 0x0f, 0x00, 0x00, 0x00, 0x32, 0x00, 0x00, 0x00,
  0xea, 0xfd, 0xff, 0xff, 0x00, 0x00, 0x00, 0x09, 0x6c, 0x00, 0x00, 0x00,
  0x0a, 0x00, 0x00, 0x00, 0x40, 0x00, 0x00, 0x00, 0x04, 0x00, 0x00, 0x00,
  0x74, 0xfe, 0xff, 0xff, 0x2c, 0x00, 0x00, 0x00, 0x20, 0x00, 0x00, 0x00,
  0x14, 0x00, 0x00, 0x00, 0x04, 0x00, 0x00, 0x00, 0x01, 0x00, 0x00, 0x00,
  0x80, 0xff, 0xff, 0xff, 0xff, 0xff, 0xff, 0xff, 0x01, 0x00, 0x00, 0x00,
  0x10, 0x29, 0xe9, 0x3b, 0x01, 0x00, 0x00, 0x00, 0xe7, 0x3f, 0xe8, 0x3f,
  0x01, 0x00, 0x00, 0x00, 0x00, 0x00, 0x00, 0x00, 0x1e, 0x00, 0x00, 0x00,
  0x73, 0x65, 0x71, 0x75, 0x65, 0x6e, 0x74, 0x69, 0x61, 0x6c, 0x5f, 0x31,
  0x2f, 0x64, 0x65, 0x6e, 0x73, 0x65, 0x5f, 0x44, 0x65, 0x6e, 0x73, 0x65,
  0x31, 0x2f, 0x52, 0x65, 0x6c, 0x75, 0x00, 0x00, 0x02, 0x00, 0x00, 0x00,
  0x01, 0x00, 0x00, 0x00, 0x32, 0x00, 0x00, 0x00, 0x6a, 0xfe, 0xff, 0xff,
  0x00, 0x00, 0x00, 0x02, 0x60, 0x00, 0x00, 0x00, 0x04, 0x00, 0x00, 0x00,
  0x2c, 0x00, 0x00, 0x00, 0x04, 0x00, 0x00, 0x00, 0x5c, 0xfe, 0xff, 0xff,
  0x18, 0x00, 0x00, 0x00, 0x04, 0x00, 0x00, 0x00, 0x01, 0x00, 0x00, 0x00,
  0x00, 0x00, 0x00, 0x00, 0x00, 0x00, 0x00, 0x00, 0x00, 0x00, 0x00, 0x00,
  0x01, 0x00, 0x00, 0x00, 0x32, 0xe7, 0x8e, 0x37, 0x25, 0x00, 0x00, 0x00,
  0x73, 0x65, 0x71, 0x75, 0x65, 0x6e, 0x74, 0x69, 0x61, 0x6c, 0x5f, 0x31,
  0x2f, 0x64, 0x65, 0x6e, 0x73, 0x65, 0x5f, 0x44, 0x65, 0x6e, 0x73, 0x65,
  0x31, 0x2f, 0x4d, 0x61, 0x74, 0x4d, 0x75, 0x6c, 0x5f, 0x62, 0x69, 0x61,
  0x73, 0x00, 0x00, 0x00, 0x01, 0x00, 0x00, 0x00, 0x32, 0x00, 0x00, 0x00,
  0xda, 0xfe, 0xff, 0xff, 0x00, 0x00, 0x00, 0x09, 0x88, 0x00, 0x00, 0x00,
  0x09, 0x00, 0x00, 0x00, 0x40, 0x00, 0x00, 0x00, 0x04, 0x00, 0x00, 0x00,
  0x64, 0xff, 0xff, 0xff, 0x2c, 0x00, 0x00, 0x00, 0x20, 0x00, 0x00, 0x00,
  0x14, 0x00, 0x00, 0x00, 0x04, 0x00, 0x00, 0x00, 0x01, 0x00, 0x00, 0x00,
  0x00, 0x00, 0x00, 0x00, 0x00, 0x00, 0x00, 0x00, 0x01, 0x00, 0x00, 0x00,
  0xbe, 0x5c, 0x0e, 0x3b, 0x01, 0x00, 0x00, 0x00, 0x05, 0x40, 0x8d, 0x3e,
  0x01, 0x00, 0x00, 0x00, 0x39, 0x39, 0x8c, 0xbe, 0x39, 0x00, 0x00, 0x00,
  0x73, 0x65, 0x71, 0x75, 0x65, 0x6e, 0x74, 0x69, 0x61, 0x6c, 0x5f, 0x31,
  0x2f, 0x64, 0x65, 0x6e, 0x73, 0x65, 0x5f, 0x44, 0x65, 0x6e, 0x73, 0x65,
  0x31, 0x2f, 0x4d, 0x61, 0x74, 0x4d, 0x75, 0x6c, 0x2f, 0x52, 0x65, 0x61,
  0x64, 0x56, 0x61, 0x72, 0x69, 0x61, 0x62, 0x6c, 0x65, 0x4f, 0x70, 0x2f,
  0x74, 0x72, 0x61, 0x6e, 0x73, 0x70, 0x6f, 0x73, 0x65, 0x00, 0x00, 0x00,
  0x02, 0x00, 0x00, 0x00, 0x32, 0x00, 0x00, 0x00, 0x78, 0x00, 0x00, 0x00,
  0x76, 0xff, 0xff, 0xff, 0x00, 0x00, 0x00, 0x09, 0x74, 0x00, 0x00, 0x00,
  0x07, 0x00, 0x00, 0x00, 0x50, 0x00, 0x00, 0x00, 0x10, 0x00, 0x00, 0x00,
  0x0c, 0x00, 0x14, 0x00, 0x04, 0x00, 0x08, 0x00, 0x0c, 0x00, 0x10, 0x00,
  0x0c, 0x00, 0x00, 0x00, 0x30, 0x00, 0x00, 0x00, 0x24, 0x00, 0x00, 0x00,
  0x18, 0x00, 0x00, 0x00, 0x04, 0x00, 0x00, 0x00, 0x01, 0x00, 0x00, 0x00,
  0x00, 0x00, 0x00, 0x00, 0x00, 0x00, 0x00, 0x00, 0x00, 0x00, 0x00, 0x00,
  0x01, 0x00, 0x00, 0x00, 0x7c, 0x7c, 0x00, 0x3c, 0x01, 0x00, 0x00, 0x00,
  0x00, 0xf8, 0x7f, 0x3f, 0x01, 0x00, 0x00, 0x00, 0x00, 0xf8, 0x7f, 0xbf,
  0x17, 0x00, 0x00, 0x00, 0x64, 0x65, 0x6e, 0x73, 0x65, 0x5f, 0x44, 0x65,
  0x6e, 0x73, 0x65, 0x31, 0x5f, 0x69, 0x6e, 0x70, 0x75, 0x74, 0x5f, 0x69,
  0x6e, 0x74, 0x38, 0x00, 0x02, 0x00, 0x00, 0x00, 0x01, 0x00, 0x00, 0x00,
  0x78, 0x00, 0x00, 0x00, 0x00, 0x00, 0x0e, 0x00, 0x18, 0x00, 0x08, 0x00,
  0x07, 0x00, 0x0c, 0x00, 0x10, 0x00, 0x14, 0x00, 0x0e, 0x00, 0x00, 0x00,
  0x00, 0x00, 0x00, 0x09, 0x54, 0x00, 0x00, 0x00, 0x05, 0x00, 0x00, 0x00,
  0x38, 0x00, 0x00, 0x00, 0x10, 0x00, 0x00, 0x00, 0x0c, 0x00, 0x0c, 0x00,
  0x00, 0x00, 0x00, 0x00, 0x04, 0x00, 0x08, 0x00, 0x0c, 0x00, 0x00, 0x00,
  0x18, 0x00, 0x00, 0x00, 0x04, 0x00, 0x00, 0x00, 0x01, 0x00, 0x00, 0x00,
  0x80, 0xff, 0xff, 0xff, 0xff, 0xff, 0xff, 0xff, 0x00, 0x00, 0x00, 0x00,
  0x01, 0x00, 0x00, 0x00, 0x00, 0x00, 0x80, 0x3b, 0x0d, 0x00, 0x00, 0x00,
  0x49, 0x64, 0x65, 0x6e, 0x74, 0x69, 0x74, 0x79, 0x5f, 0x69, 0x6e, 0x74,
  0x38, 0x00, 0x00, 0x00, 0x02, 0x00, 0x00, 0x00, 0x01, 0x00, 0x00, 0x00,
  0x02, 0x00, 0x00, 0x00, 0x04, 0x00, 0x00, 0x00, 0x4c, 0x00, 0x00, 0x00,
  0x30, 0x00, 0x00, 0x00, 0x1c, 0x00, 0x00, 0x00, 0x04, 0x00, 0x00, 0x00,
  0xe6, 0xff, 0xff, 0xff, 0x00, 0x00, 0x00, 0x06, 0x02, 0x00, 0x00, 0x00,
  0x00, 0x00, 0x06, 0x00, 0x06, 0x00, 0x05, 0x00, 0x06, 0x00, 0x00, 0x00,
  0x00, 0x72, 0x0a, 0x00, 0x0e, 0x00, 0x07, 0x00, 0x00, 0x00, 0x08, 0x00,
  0x0a, 0x00, 0x00, 0x00, 0x00, 0x00, 0x00, 0x19, 0x02, 0x00, 0x00, 0x00,
  0x00, 0x00, 0x0a, 0x00, 0x0c, 0x00, 0x07, 0x00, 0x00, 0x00, 0x08, 0x00,
  0x0a, 0x00, 0x00, 0x00, 0x00, 0x00, 0x00, 0x09, 0x04, 0x00, 0x00, 0x00
};